{
  "version": "1.0",
  "truncation": null,
  "padding": null,
  "added_tokens": [
    {
      "id": 0,
      "content": "[PAD]",
      "single_word": false,
      "lstrip": false,
      "rstrip": false,
      "normalized": false,
      "special": true
    },
    {
      "id": 1,
      "content": "[CLS]",
      "single_word": false,
      "lstrip": false,
      "rstrip": false,
      "normalized": false,
      "special": true
    },
    {
      "id": 2,
      "content": "[SEP]",
      "single_word": false,
      "lstrip": false,
      "rstrip": false,
      "normalized": false,
      "special": true
    },
    {
      "id": 3,
      "content": "[MASK]",
      "single_word": false,
      "lstrip": false,
      "rstrip": false,
      "normalized": false,
      "special": true
    }
  ],
  "normalizer": null,
  "pre_tokenizer": {
    "type": "Whitespace"
  },
  "post_processor": {
    "type": "ByteLevel",
    "add_prefix_space": true,
    "trim_offsets": true,
    "use_regex": true
  },
  "decoder": {
    "type": "BPEDecoder",
    "suffix": "</w>"
  },
  "model": {
    "type": "BPE",
    "dropout": null,
    "unk_token": null,
    "continuing_subword_prefix": null,
    "end_of_word_suffix": null,
    "fuse_unk": false,
    "byte_fallback": false,
    "ignore_merges": false,
    "vocab": {
      "[PAD]": 0,
      "[CLS]": 1,
      "[SEP]": 2,
      "[MASK]": 3,
      "0": 4,
      "1": 5,
      "2": 6,
      "3": 7,
      "4": 8,
      "5": 9,
      "6": 10,
      "7": 11,
      "8": 12,
      "9": 13,
      "@": 14,
      "A": 15,
      "C": 16,
      "D": 17,
      "E": 18,
      "F": 19,
      "G": 20,
      "H": 21,
      "J": 22,
      "L": 23,
      "M": 24,
      "N": 25,
      "O": 26,
      "P": 27,
      "Q": 28,
      "R": 29,
      "S": 30,
      "W": 31,
      "Y": 32,
      "Z": 33,
      "[": 34,
      "\\": 35,
      "]": 36,
      "^": 37,
      "_": 38,
      "b": 39,
      "d": 40,
      "e": 41,
      "f": 42,
      "g": 43,
      "h": 44,
      "i": 45,
      "j": 46,
      "k": 47,
      "l": 48,
      "m": 49,
      "n": 50,
      "o": 51,
      "q": 52,
      "r": 53,
      "s": 54,
      "t": 55,
      "u": 56,
      "v": 57,
      "w": 58,
      "x": 59,
      "|": 60,
      "}": 61,
      "~": 62,
      "×": 63,
      "ê": 64,
      "ú": 65,
      "ü": 66,
      "ā": 67,
      "ū": 68,
      "ǎ": 69,
      "ǖ": 70,
      "ǜ": 71,
      "Α": 72,
      "Γ": 73,
      "Ρ": 74,
      "Σ": 75,
      "Υ": 76,
      "Φ": 77,
      "Χ": 78,
      "Ψ": 79,
      "Ω": 80,
      "α": 81,
      "γ": 82,
      "η": 83,
      "ι": 84,
      "κ": 85,
      "μ": 86,
      "π": 87,
      "ρ": 88,
      "σ": 89,
      "τ": 90,
      "υ": 91,
      "φ": 92,
      "χ": 93,
      "ψ": 94,
      "А": 95,
      "В": 96,
      "С": 97,
      "У": 98,
      "Ф": 99,
      "Ч": 100,
      "Ш": 101,
      "Щ": 102,
      "Ы": 103,
      "Ю": 104,
      "в": 105,
      "г": 106,
      "д": 107,
      "е": 108,
      "―": 109,
      "‘": 110,
      "’": 111,
      "“": 112,
      "”": 113,
      "…": 114,
      "∈": 115,
      "∑": 116,
      "∩": 117,
      "∪": 118,
      "∫": 119,
      "∮": 120,
      "∽": 121,
      "≈": 122,
      "≌": 123,
      "≡": 124,
      "⊥": 125,
      "⌒": 126,
      "⑴": 127,
      "⑵": 128,
      "⑶": 129,
      "⑸": 130,
      "⑹": 131,
      "⑺": 132,
      "⑻": 133,
      "⑽": 134,
      "⑾": 135,
      "⒁": 136,
      "⒃": 137,
      "⒄": 138,
      "⒅": 139,
      "⒆": 140,
      "⒉": 141,
      "⒊": 142,
      "⒌": 143,
      "⒎": 144,
      "⒓": 145,
      "⒕": 146,
      "⒖": 147,
      "⒘": 148,
      "⒙": 149,
      "⒚": 150,
      "┍": 151,
      "┏": 152,
      "┐": 153,
      "┒": 154,
      "└": 155,
      "┖": 156,
      "┗": 157,
      "┙": 158,
      "├": 159,
      "┝": 160,
      "┞": 161,
      "┟": 162,
      "┠": 163,
      "┤": 164,
      "┦": 165,
      "┩": 166,
      "┬": 167,
      "┮": 168,
      "┯": 169,
      "┱": 170,
      "┲": 171,
      "●": 172,
      "、": 173,
      "。": 174,
      "〉": 175,
      "《": 176,
      "》": 177,
      "」": 178,
      "『": 179,
      "』": 180,
      "【": 181,
      "】": 182,
      "〕": 183,
      "〖": 184,
      "〗": 185,
      "ぁ": 186,
      "ぃ": 187,
      "こ": 188,
      "さ": 189,
      "ざ": 190,
      "し": 191,
      "ず": 192,
      "せ": 193,
      "た": 194,
      "だ": 195,
      "て": 196,
      "で": 197,
      "と": 198,
      "ど": 199,
      "に": 200,
      "ぬ": 201,
      "は": 202,
      "ひ": 203,
      "び": 204,
      "ぶ": 205,
      "ぺ": 206,
      "ァ": 207,
      "ィ": 208,
      "コ": 209,
      "ゴ": 210,
      "サ": 211,
      "ス": 212,
      "ズ": 213,
      "ツ": 214,
      "ド": 215,
      "ナ": 216,
      "ネ": 217,
      "ハ": 218,
      "ビ": 219,
      "フ": 220,
      "ㄅ": 221,
      "ㄇ": 222,
      "ㄈ": 223,
      "ㄊ": 224,
      "ㄌ": 225,
      "ㄏ": 226,
      "ㄒ": 227,
      "ㄓ": 228,
      "ㄔ": 229,
      "ㄕ": 230,
      "ㄖ": 231,
      "ㄗ": 232,
      "ㄟ": 233,
      "ㄧ": 234,
      "㈧": 235,
      "一": 236,
      "丁": 237,
      "七": 238,
      "万": 239,
      "丈": 240,
      "三": 241,
      "上": 242,
      "下": 243,
      "不": 244,
      "与": 245,
      "丑": 246,
      "专": 247,
      "且": 248,
      "丕": 249,
      "世": 250,
      "丘": 251,
      "丙": 252,
      "业": 253,
      "丛": 254,
      "东": 255,
      "丝": 256,
      "丢": 257,
      "两": 258,
      "严": 259,
      "丧": 260,
      "个": 261,
      "丫": 262,
      "中": 263,
      "丰": 264,
      "串": 265,
      "临": 266,
      "丶": 267,
      "丸": 268,
      "丹": 269,
      "为": 270,
      "主": 271,
      "丽": 272,
      "举": 273,
      "乃": 274,
      "久": 275,
      "乇": 276,
      "么": 277,
      "义": 278,
      "之": 279,
      "乌": 280,
      "乍": 281,
      "乎": 282,
      "乏": 283,
      "乐": 284,
      "乒": 285,
      "乓": 286,
      "乔": 287,
      "乖": 288,
      "乘": 289,
      "乙": 290,
      "九": 291,
      "乞": 292,
      "也": 293,
      "习": 294,
      "乡": 295,
      "书": 296,
      "买": 297,
      "乱": 298,
      "乳": 299,
      "乾": 300,
      "了": 301,
      "予": 302,
      "争": 303,
      "事": 304,
      "二": 305,
      "亍": 306,
      "于": 307,
      "亏": 308,
      "云": 309,
      "互": 310,
      "亓": 311,
      "五": 312,
      "井": 313,
      "亘": 314,
      "亚": 315,
      "些": 316,
      "亟": 317,
      "亡": 318,
      "亢": 319,
      "交": 320,
      "亥": 321,
      "亦": 322,
      "产": 323,
      "亨": 324,
      "亩": 325,
      "享": 326,
      "京": 327,
      "亭": 328,
      "亮": 329,
      "亲": 330,
      "亵": 331,
      "人": 332,
      "亿": 333,
      "什": 334,
      "仁": 335,
      "仄": 336,
      "仅": 337,
      "仆": 338,
      "仇": 339,
      "今": 340,
      "介": 341,
      "仍": 342,
      "从": 343,
      "仑": 344,
      "仓": 345,
      "仔": 346,
      "仕": 347,
      "他": 348,
      "仗": 349,
      "付": 350,
      "仙": 351,
      "仞": 352,
      "代": 353,
      "令": 354,
      "以": 355,
      "仪": 356,
      "们": 357,
      "仰": 358,
      "仲": 359,
      "件": 360,
      "价": 361,
      "任": 362,
      "份": 363,
      "仿": 364,
      "企": 365,
      "伊": 366,
      "伍": 367,
      "伎": 368,
      "伏": 369,
      "伐": 370,
      "休": 371,
      "众": 372,
      "优": 373,
      "伙": 374,
      "会": 375,
      "伛": 376,
      "伞": 377,
      "伟": 378,
      "传": 379,
      "伤": 380,
      "伥": 381,
      "伦": 382,
      "伪": 383,
      "伫": 384,
      "伯": 385,
      "估": 386,
      "伲": 387,
      "伴": 388,
      "伶": 389,
      "伸": 390,
      "伺": 391,
      "似": 392,
      "伽": 393,
      "佃": 394,
      "但": 395,
      "位": 396,
      "低": 397,
      "住": 398,
      "佐": 399,
      "佑": 400,
      "体": 401,
      "何": 402,
      "佘": 403,
      "余": 404,
      "佚": 405,
      "佛": 406,
      "作": 407,
      "佞": 408,
      "你": 409,
      "佣": 410,
      "佩": 411,
      "佬": 412,
      "佯": 413,
      "佳": 414,
      "佻": 415,
      "佼": 416,
      "使": 417,
      "侃": 418,
      "侄": 419,
      "侈": 420,
      "例": 421,
      "侍": 422,
      "侗": 423,
      "供": 424,
      "依": 425,
      "侠": 426,
      "侣": 427,
      "侥": 428,
      "侦": 429,
      "侧": 430,
      "侨": 431,
      "侩": 432,
      "侮": 433,
      "侯": 434,
      "侵": 435,
      "便": 436,
      "促": 437,
      "俄": 438,
      "俅": 439,
      "俊": 440,
      "俎": 441,
      "俏": 442,
      "俐": 443,
      "俑": 444,
      "俗": 445,
      "俘": 446,
      "俚": 447,
      "保": 448,
      "俞": 449,
      "信": 450,
      "俣": 451,
      "俦": 452,
      "俨": 453,
      "俩": 454,
      "俪": 455,
      "俭": 456,
      "修": 457,
      "俯": 458,
      "俱": 459,
      "俳": 460,
      "俺": 461,
      "俾": 462,
      "倌": 463,
      "倍": 464,
      "倏": 465,
      "倒": 466,
      "倔": 467,
      "倘": 468,
      "候": 469,
      "倚": 470,
      "倜": 471,
      "借": 472,
      "倡": 473,
      "倥": 474,
      "倦": 475,
      "倨": 476,
      "倩": 477,
      "倪": 478,
      "倭": 479,
      "倮": 480,
      "债": 481,
      "值": 482,
      "倾": 483,
      "偃": 484,
      "假": 485,
      "偈": 486,
      "偌": 487,
      "偎": 488,
      "偏": 489,
      "偕": 490,
      "做": 491,
      "停": 492,
      "健": 493,
      "偬": 494,
      "偶": 495,
      "偷": 496,
      "偻": 497,
      "偿": 498,
      "傀": 499,
      "傅": 500,
      "傍": 501,
      "傧": 502,
      "储": 503,
      "傩": 504,
      "催": 505,
      "傲": 506,
      "傻": 507,
      "像": 508,
      "僖": 509,
      "僚": 510,
      "僦": 511,
      "僧": 512,
      "僬": 513,
      "僭": 514,
      "僮": 515,
      "僵": 516,
      "僻": 517,
      "儆": 518,
      "儒": 519,
      "儡": 520,
      "儿": 521,
      "兀": 522,
      "允": 523,
      "元": 524,
      "兄": 525,
      "充": 526,
      "兆": 527,
      "先": 528,
      "光": 529,
      "克": 530,
      "免": 531,
      "兑": 532,
      "兔": 533,
      "兜": 534,
      "兢": 535,
      "入": 536,
      "全": 537,
      "八": 538,
      "公": 539,
      "六": 540,
      "兮": 541,
      "兰": 542,
      "共": 543,
      "关": 544,
      "兴": 545,
      "兵": 546,
      "其": 547,
      "具": 548,
      "典": 549,
      "兹": 550,
      "养": 551,
      "兼": 552,
      "兽": 553,
      "冀": 554,
      "内": 555,
      "冈": 556,
      "冉": 557,
      "册": 558,
      "再": 559,
      "冒": 560,
      "冕": 561,
      "冗": 562,
      "写": 563,
      "军": 564,
      "农": 565,
      "冠": 566,
      "冢": 567,
      "冤": 568,
      "冥": 569,
      "冬": 570,
      "冯": 571,
      "冰": 572,
      "冲": 573,
      "决": 574,
      "况": 575,
      "冶": 576,
      "冷": 577,
      "冻": 578,
      "冽": 579,
      "净": 580,
      "凄": 581,
      "准": 582,
      "凇": 583,
      "凉": 584,
      "凋": 585,
      "凌": 586,
      "减": 587,
      "凑": 588,
      "凛": 589,
      "凝": 590,
      "几": 591,
      "凡": 592,
      "凤": 593,
      "凭": 594,
      "凰": 595,
      "凳": 596,
      "凵": 597,
      "凶": 598,
      "凸": 599,
      "凹": 600,
      "出": 601,
      "击": 602,
      "凼": 603,
      "函": 604,
      "凿": 605,
      "刀": 606,
      "刁": 607,
      "刂": 608,
      "刃": 609,
      "分": 610,
      "切": 611,
      "刈": 612,
      "刊": 613,
      "刍": 614,
      "刎": 615,
      "刑": 616,
      "划": 617,
      "刖": 618,
      "列": 619,
      "刘": 620,
      "则": 621,
      "刚": 622,
      "创": 623,
      "初": 624,
      "删": 625,
      "判": 626,
      "刨": 627,
      "利": 628,
      "别": 629,
      "刮": 630,
      "到": 631,
      "刳": 632,
      "制": 633,
      "刷": 634,
      "券": 635,
      "刹": 636,
      "刺": 637,
      "刻": 638,
      "剁": 639,
      "剂": 640,
      "剃": 641,
      "削": 642,
      "剌": 643,
      "前": 644,
      "剐": 645,
      "剑": 646,
      "剔": 647,
      "剖": 648,
      "剥": 649,
      "剧": 650,
      "剩": 651,
      "剪": 652,
      "副": 653,
      "割": 654,
      "剿": 655,
      "劈": 656,
      "力": 657,
      "劝": 658,
      "办": 659,
      "功": 660,
      "加": 661,
      "务": 662,
      "劣": 663,
      "动": 664,
      "助": 665,
      "努": 666,
      "劫": 667,
      "励": 668,
      "劲": 669,
      "劳": 670,
      "劾": 671,
      "势": 672,
      "勃": 673,
      "勇": 674,
      "勉": 675,
      "勋": 676,
      "勒": 677,
      "勘": 678,
      "募": 679,
      "勤": 680,
      "勺": 681,
      "勾": 682,
      "勿": 683,
      "匀": 684,
      "包": 685,
      "匆": 686,
      "匍": 687,
      "匏": 688,
      "匐": 689,
      "匕": 690,
      "化": 691,
      "北": 692,
      "匙": 693,
      "匝": 694,
      "匠": 695,
      "匡": 696,
      "匣": 697,
      "匦": 698,
      "匪": 699,
      "匮": 700,
      "匹": 701,
      "区": 702,
      "医": 703,
      "匾": 704,
      "匿": 705,
      "十": 706,
      "千": 707,
      "升": 708,
      "午": 709,
      "卉": 710,
      "半": 711,
      "华": 712,
      "协": 713,
      "卑": 714,
      "卒": 715,
      "卓": 716,
      "单": 717,
      "卖": 718,
      "南": 719,
      "博": 720,
      "卜": 721,
      "卟": 722,
      "占": 723,
      "卡": 724,
      "卢": 725,
      "卣": 726,
      "卦": 727,
      "卧": 728,
      "卫": 729,
      "卮": 730,
      "卯": 731,
      "印": 732,
      "危": 733,
      "即": 734,
      "却": 735,
      "卵": 736,
      "卷": 737,
      "卸": 738,
      "卿": 739,
      "厄": 740,
      "厅": 741,
      "历": 742,
      "厉": 743,
      "压": 744,
      "厌": 745,
      "厘": 746,
      "厚": 747,
      "厝": 748,
      "原": 749,
      "厢": 750,
      "厣": 751,
      "厥": 752,
      "厦": 753,
      "厨": 754,
      "厮": 755,
      "去": 756,
      "县": 757,
      "参": 758,
      "又": 759,
      "叉": 760,
      "及": 761,
      "友": 762,
      "双": 763,
      "反": 764,
      "发": 765,
      "叔": 766,
      "取": 767,
      "受": 768,
      "变": 769,
      "叙": 770,
      "叛": 771,
      "叟": 772,
      "叠": 773,
      "口": 774,
      "古": 775,
      "句": 776,
      "另": 777,
      "叨": 778,
      "叩": 779,
      "只": 780,
      "叫": 781,
      "召": 782,
      "叭": 783,
      "叮": 784,
      "可": 785,
      "台": 786,
      "叱": 787,
      "史": 788,
      "右": 789,
      "叵": 790,
      "叶": 791,
      "号": 792,
      "司": 793,
      "叹": 794,
      "叻": 795,
      "叼": 796,
      "叽": 797,
      "吁": 798,
      "吃": 799,
      "各": 800,
      "吆": 801,
      "合": 802,
      "吉": 803,
      "吊": 804,
      "同": 805,
      "名": 806,
      "后": 807,
      "吏": 808,
      "吐": 809,
      "向": 810,
      "吒": 811,
      "吓": 812,
      "吕": 813,
      "吗": 814,
      "君": 815,
      "吝": 816,
      "吞": 817,
      "吟": 818,
      "吠": 819,
      "吡": 820,
      "吣": 821,
      "否": 822,
      "吧": 823,
      "吨": 824,
      "吩": 825,
      "含": 826,
      "听": 827,
      "吭": 828,
      "吮": 829,
      "启": 830,
      "吱": 831,
      "吴": 832,
      "吵": 833,
      "吸": 834,
      "吹": 835,
      "吻": 836,
      "吼": 837,
      "吾": 838,
      "呀": 839,
      "呃": 840,
      "呆": 841,
      "呈": 842,
      "告": 843,
      "呐": 844,
      "呓": 845,
      "呔": 846,
      "呕": 847,
      "呖": 848,
      "呗": 849,
      "员": 850,
      "呙": 851,
      "呛": 852,
      "呜": 853,
      "呢": 854,
      "呦": 855,
      "周": 856,
      "呱": 857,
      "呲": 858,
      "味": 859,
      "呵": 860,
      "呶": 861,
      "呷": 862,
      "呸": 863,
      "呻": 864,
      "呼": 865,
      "命": 866,
      "咀": 867,
      "咂": 868,
      "咄": 869,
      "咆": 870,
      "咋": 871,
      "和": 872,
      "咎": 873,
      "咏": 874,
      "咐": 875,
      "咒": 876,
      "咔": 877,
      "咕": 878,
      "咙": 879,
      "咚": 880,
      "咛": 881,
      "咝": 882,
      "咣": 883,
      "咤": 884,
      "咦": 885,
      "咧": 886,
      "咨": 887,
      "咪": 888,
      "咫": 889,
      "咬": 890,
      "咭": 891,
      "咯": 892,
      "咱": 893,
      "咳": 894,
      "咸": 895,
      "咻": 896,
      "咽": 897,
      "咿": 898,
      "哀": 899,
      "品": 900,
      "哂": 901,
      "哄": 902,
      "哆": 903,
      "哇": 904,
      "哈": 905,
      "哉": 906,
      "响": 907,
      "哎": 908,
      "哐": 909,
      "哑": 910,
      "哒": 911,
      "哗": 912,
      "哞": 913,
      "哟": 914,
      "哥": 915,
      "哦": 916,
      "哧": 917,
      "哨": 918,
      "哩": 919,
      "哪": 920,
      "哭": 921,
      "哮": 922,
      "哲": 923,
      "哺": 924,
      "哼": 925,
      "哽": 926,
      "哿": 927,
      "唆": 928,
      "唇": 929,
      "唉": 930,
      "唏": 931,
      "唐": 932,
      "唠": 933,
      "唤": 934,
      "唧": 935,
      "唬": 936,
      "售": 937,
      "唯": 938,
      "唰": 939,
      "唱": 940,
      "唳": 941,
      "唷": 942,
      "唾": 943,
      "唿": 944,
      "啁": 945,
      "啃": 946,
      "啄": 947,
      "商": 948,
      "啊": 949,
      "啐": 950,
      "啕": 951,
      "啖": 952,
      "啜": 953,
      "啡": 954,
      "啥": 955,
      "啦": 956,
      "啧": 957,
      "啪": 958,
      "啬": 959,
      "啭": 960,
      "啮": 961,
      "啵": 962,
      "啷": 963,
      "啸": 964,
      "啻": 965,
      "啼": 966,
      "啾": 967,
      "喀": 968,
      "喂": 969,
      "喃": 970,
      "善": 971,
      "喇": 972,
      "喉": 973,
      "喊": 974,
      "喋": 975,
      "喑": 976,
      "喔": 977,
      "喘": 978,
      "喙": 979,
      "喜": 980,
      "喝": 981,
      "喟": 982,
      "喧": 983,
      "喳": 984,
      "喷": 985,
      "喻": 986,
      "喽": 987,
      "喾": 988,
      "嗄": 989,
      "嗅": 990,
      "嗉": 991,
      "嗌": 992,
      "嗍": 993,
      "嗑": 994,
      "嗒": 995,
      "嗓": 996,
      "嗔": 997,
      "嗖": 998,
      "嗜": 999,
      "嗝": 1000,
      "嗟": 1001,
      "嗡": 1002,
      "嗣": 1003,
      "嗤": 1004,
      "嗥": 1005,
      "嗦": 1006,
      "嗨": 1007,
      "嗪": 1008,
      "嗫": 1009,
      "嗬": 1010,
      "嗯": 1011,
      "嗵": 1012,
      "嗷": 1013,
      "嗽": 1014,
      "嗾": 1015,
      "嘀": 1016,
      "嘁": 1017,
      "嘈": 1018,
      "嘉": 1019,
      "嘌": 1020,
      "嘎": 1021,
      "嘘": 1022,
      "嘛": 1023,
      "嘞": 1024,
      "嘟": 1025,
      "嘣": 1026,
      "嘤": 1027,
      "嘧": 1028,
      "嘬": 1029,
      "嘭": 1030,
      "嘱": 1031,
      "嘲": 1032,
      "嘴": 1033,
      "嘶": 1034,
      "嘹": 1035,
      "嘻": 1036,
      "嘿": 1037,
      "噌": 1038,
      "噍": 1039,
      "噎": 1040,
      "噔": 1041,
      "噗": 1042,
      "噘": 1043,
      "噙": 1044,
      "噜": 1045,
      "噢": 1046,
      "噤": 1047,
      "器": 1048,
      "噩": 1049,
      "噪": 1050,
      "噫": 1051,
      "噬": 1052,
      "噱": 1053,
      "噶": 1054,
      "噼": 1055,
      "嚅": 1056,
      "嚎": 1057,
      "嚏": 1058,
      "嚓": 1059,
      "嚣": 1060,
      "嚷": 1061,
      "嚼": 1062,
      "囊": 1063,
      "囔": 1064,
      "囚": 1065,
      "四": 1066,
      "回": 1067,
      "囟": 1068,
      "因": 1069,
      "团": 1070,
      "囤": 1071,
      "囫": 1072,
      "园": 1073,
      "困": 1074,
      "囱": 1075,
      "围": 1076,
      "囵": 1077,
      "囹": 1078,
      "固": 1079,
      "国": 1080,
      "图": 1081,
      "囿": 1082,
      "圃": 1083,
      "圄": 1084,
      "圆": 1085,
      "圈": 1086,
      "圜": 1087,
      "土": 1088,
      "圣": 1089,
      "在": 1090,
      "圩": 1091,
      "圭": 1092,
      "圮": 1093,
      "地": 1094,
      "场": 1095,
      "圾": 1096,
      "址": 1097,
      "均": 1098,
      "坊": 1099,
      "坌": 1100,
      "坍": 1101,
      "坎": 1102,
      "坏": 1103,
      "坐": 1104,
      "坑": 1105,
      "块": 1106,
      "坚": 1107,
      "坛": 1108,
      "坝": 1109,
      "坞": 1110,
      "坟": 1111,
      "坠": 1112,
      "坡": 1113,
      "坤": 1114,
      "坦": 1115,
      "坨": 1116,
      "坩": 1117,
      "坪": 1118,
      "坯": 1119,
      "坳": 1120,
      "坷": 1121,
      "坻": 1122,
      "坼": 1123,
      "垂": 1124,
      "垃": 1125,
      "型": 1126,
      "垒": 1127,
      "垛": 1128,
      "垠": 1129,
      "垡": 1130,
      "垢": 1131,
      "垣": 1132,
      "垦": 1133,
      "垫": 1134,
      "垭": 1135,
      "垮": 1136,
      "埂": 1137,
      "埃": 1138,
      "埋": 1139,
      "城": 1140,
      "埔": 1141,
      "埙": 1142,
      "域": 1143,
      "埠": 1144,
      "培": 1145,
      "基": 1146,
      "埽": 1147,
      "堂": 1148,
      "堆": 1149,
      "堑": 1150,
      "堕": 1151,
      "堙": 1152,
      "堡": 1153,
      "堤": 1154,
      "堪": 1155,
      "堰": 1156,
      "堵": 1157,
      "塌": 1158,
      "塑": 1159,
      "塔": 1160,
      "塘": 1161,
      "塞": 1162,
      "填": 1163,
      "墁": 1164,
      "境": 1165,
      "墅": 1166,
      "墒": 1167,
      "墓": 1168,
      "墙": 1169,
      "增": 1170,
      "墟": 1171,
      "墨": 1172,
      "墩": 1173,
      "墼": 1174,
      "壁": 1175,
      "壑": 1176,
      "壕": 1177,
      "壤": 1178,
      "士": 1179,
      "壬": 1180,
      "壮": 1181,
      "声": 1182,
      "壳": 1183,
      "壶": 1184,
      "壹": 1185,
      "夂": 1186,
      "处": 1187,
      "备": 1188,
      "复": 1189,
      "夏": 1190,
      "夔": 1191,
      "夕": 1192,
      "外": 1193,
      "夙": 1194,
      "多": 1195,
      "夜": 1196,
      "够": 1197,
      "夤": 1198,
      "大": 1199,
      "天": 1200,
      "太": 1201,
      "夫": 1202,
      "夭": 1203,
      "央": 1204,
      "夯": 1205,
      "失": 1206,
      "头": 1207,
      "夷": 1208,
      "夸": 1209,
      "夹": 1210,
      "夺": 1211,
      "夼": 1212,
      "奂": 1213,
      "奄": 1214,
      "奇": 1215,
      "奈": 1216,
      "奉": 1217,
      "奋": 1218,
      "奎": 1219,
      "奏": 1220,
      "契": 1221,
      "奔": 1222,
      "奕": 1223,
      "奖": 1224,
      "套": 1225,
      "奘": 1226,
      "奚": 1227,
      "奠": 1228,
      "奢": 1229,
      "奥": 1230,
      "女": 1231,
      "奴": 1232,
      "奶": 1233,
      "奸": 1234,
      "她": 1235,
      "好": 1236,
      "如": 1237,
      "妃": 1238,
      "妄": 1239,
      "妆": 1240,
      "妇": 1241,
      "妈": 1242,
      "妊": 1243,
      "妍": 1244,
      "妒": 1245,
      "妓": 1246,
      "妖": 1247,
      "妗": 1248,
      "妙": 1249,
      "妣": 1250,
      "妥": 1251,
      "妨": 1252,
      "妩": 1253,
      "妫": 1254,
      "妮": 1255,
      "妹": 1256,
      "妻": 1257,
      "妾": 1258,
      "姆": 1259,
      "姊": 1260,
      "始": 1261,
      "姐": 1262,
      "姑": 1263,
      "姓": 1264,
      "委": 1265,
      "姗": 1266,
      "姘": 1267,
      "姜": 1268,
      "姣": 1269,
      "姥": 1270,
      "姨": 1271,
      "姬": 1272,
      "姹": 1273,
      "姻": 1274,
      "姿": 1275,
      "威": 1276,
      "娃": 1277,
      "娄": 1278,
      "娆": 1279,
      "娇": 1280,
      "娉": 1281,
      "娌": 1282,
      "娑": 1283,
      "娓": 1284,
      "娘": 1285,
      "娜": 1286,
      "娟": 1287,
      "娠": 1288,
      "娣": 1289,
      "娥": 1290,
      "娩": 1291,
      "娲": 1292,
      "娴": 1293,
      "娶": 1294,
      "娼": 1295,
      "婀": 1296,
      "婆": 1297,
      "婉": 1298,
      "婊": 1299,
      "婕": 1300,
      "婚": 1301,
      "婢": 1302,
      "婧": 1303,
      "婪": 1304,
      "婴": 1305,
      "婵": 1306,
      "婶": 1307,
      "婷": 1308,
      "婺": 1309,
      "婿": 1310,
      "媒": 1311,
      "媚": 1312,
      "媛": 1313,
      "媪": 1314,
      "媲": 1315,
      "媳": 1316,
      "媸": 1317,
      "媾": 1318,
      "嫁": 1319,
      "嫂": 1320,
      "嫉": 1321,
      "嫌": 1322,
      "嫒": 1323,
      "嫔": 1324,
      "嫘": 1325,
      "嫜": 1326,
      "嫠": 1327,
      "嫡": 1328,
      "嫣": 1329,
      "嫦": 1330,
      "嫩": 1331,
      "嫫": 1332,
      "嫱": 1333,
      "嬉": 1334,
      "嬖": 1335,
      "嬗": 1336,
      "嬲": 1337,
      "嬷": 1338,
      "孀": 1339,
      "子": 1340,
      "孑": 1341,
      "孔": 1342,
      "孕": 1343,
      "字": 1344,
      "存": 1345,
      "孙": 1346,
      "孛": 1347,
      "孜": 1348,
      "孝": 1349,
      "孟": 1350,
      "孢": 1351,
      "季": 1352,
      "孤": 1353,
      "学": 1354,
      "孩": 1355,
      "孪": 1356,
      "孰": 1357,
      "孱": 1358,
      "孳": 1359,
      "孵": 1360,
      "孺": 1361,
      "孽": 1362,
      "宀": 1363,
      "宁": 1364,
      "它": 1365,
      "宄": 1366,
      "宅": 1367,
      "宇": 1368,
      "守": 1369,
      "安": 1370,
      "宋": 1371,
      "完": 1372,
      "宏": 1373,
      "宓": 1374,
      "宕": 1375,
      "宗": 1376,
      "官": 1377,
      "宙": 1378,
      "定": 1379,
      "宛": 1380,
      "宜": 1381,
      "宝": 1382,
      "实": 1383,
      "宠": 1384,
      "审": 1385,
      "客": 1386,
      "宣": 1387,
      "室": 1388,
      "宥": 1389,
      "宦": 1390,
      "宫": 1391,
      "宰": 1392,
      "害": 1393,
      "宴": 1394,
      "宵": 1395,
      "家": 1396,
      "宸": 1397,
      "容": 1398,
      "宽": 1399,
      "宾": 1400,
      "宿": 1401,
      "寂": 1402,
      "寄": 1403,
      "寅": 1404,
      "密": 1405,
      "寇": 1406,
      "富": 1407,
      "寐": 1408,
      "寒": 1409,
      "寓": 1410,
      "寝": 1411,
      "寞": 1412,
      "察": 1413,
      "寡": 1414,
      "寥": 1415,
      "寨": 1416,
      "寮": 1417,
      "寰": 1418,
      "寸": 1419,
      "对": 1420,
      "寺": 1421,
      "寻": 1422,
      "导": 1423,
      "寿": 1424,
      "封": 1425,
      "射": 1426,
      "将": 1427,
      "尉": 1428,
      "尊": 1429,
      "小": 1430,
      "少": 1431,
      "尔": 1432,
      "尖": 1433,
      "尘": 1434,
      "尚": 1435,
      "尝": 1436,
      "尤": 1437,
      "尥": 1438,
      "尧": 1439,
      "尬": 1440,
      "就": 1441,
      "尴": 1442,
      "尸": 1443,
      "尹": 1444,
      "尺": 1445,
      "尼": 1446,
      "尽": 1447,
      "尾": 1448,
      "尿": 1449,
      "局": 1450,
      "屁": 1451,
      "层": 1452,
      "居": 1453,
      "屈": 1454,
      "屉": 1455,
      "届": 1456,
      "屋": 1457,
      "屎": 1458,
      "屏": 1459,
      "屑": 1460,
      "展": 1461,
      "属": 1462,
      "屠": 1463,
      "屡": 1464,
      "履": 1465,
      "屯": 1466,
      "山": 1467,
      "屹": 1468,
      "屿": 1469,
      "岁": 1470,
      "岂": 1471,
      "岌": 1472,
      "岐": 1473,
      "岑": 1474,
      "岔": 1475,
      "岖": 1476,
      "岗": 1477,
      "岚": 1478,
      "岛": 1479,
      "岢": 1480,
      "岩": 1481,
      "岫": 1482,
      "岭": 1483,
      "岱": 1484,
      "岳": 1485,
      "岷": 1486,
      "岸": 1487,
      "岽": 1488,
      "岿": 1489,
      "峁": 1490,
      "峋": 1491,
      "峙": 1492,
      "峡": 1493,
      "峤": 1494,
      "峥": 1495,
      "峦": 1496,
      "峨": 1497,
      "峪": 1498,
      "峭": 1499,
      "峰": 1500,
      "峻": 1501,
      "崃": 1502,
      "崇": 1503,
      "崎": 1504,
      "崔": 1505,
      "崖": 1506,
      "崛": 1507,
      "崞": 1508,
      "崦": 1509,
      "崧": 1510,
      "崩": 1511,
      "崭": 1512,
      "崽": 1513,
      "崾": 1514,
      "嵇": 1515,
      "嵊": 1516,
      "嵋": 1517,
      "嵌": 1518,
      "嵘": 1519,
      "嵝": 1520,
      "嵫": 1521,
      "嵬": 1522,
      "嵯": 1523,
      "嵴": 1524,
      "嶂": 1525,
      "嶙": 1526,
      "巅": 1527,
      "巍": 1528,
      "川": 1529,
      "州": 1530,
      "巡": 1531,
      "巢": 1532,
      "工": 1533,
      "左": 1534,
      "巧": 1535,
      "巨": 1536,
      "巩": 1537,
      "巫": 1538,
      "差": 1539,
      "巯": 1540,
      "己": 1541,
      "已": 1542,
      "巳": 1543,
      "巴": 1544,
      "巷": 1545,
      "巽": 1546,
      "巾": 1547,
      "币": 1548,
      "市": 1549,
      "布": 1550,
      "帅": 1551,
      "帆": 1552,
      "师": 1553,
      "希": 1554,
      "帏": 1555,
      "帐": 1556,
      "帔": 1557,
      "帕": 1558,
      "帖": 1559,
      "帘": 1560,
      "帙": 1561,
      "帚": 1562,
      "帛": 1563,
      "帜": 1564,
      "帝": 1565,
      "带": 1566,
      "帧": 1567,
      "席": 1568,
      "帮": 1569,
      "帷": 1570,
      "常": 1571,
      "帻": 1572,
      "帼": 1573,
      "帽": 1574,
      "幂": 1575,
      "幄": 1576,
      "幅": 1577,
      "幌": 1578,
      "幔": 1579,
      "幕": 1580,
      "幡": 1581,
      "幢": 1582,
      "干": 1583,
      "平": 1584,
      "年": 1585,
      "并": 1586,
      "幸": 1587,
      "幺": 1588,
      "幻": 1589,
      "幼": 1590,
      "幽": 1591,
      "广": 1592,
      "庄": 1593,
      "庆": 1594,
      "庇": 1595,
      "床": 1596,
      "庋": 1597,
      "序": 1598,
      "庐": 1599,
      "庑": 1600,
      "库": 1601,
      "应": 1602,
      "底": 1603,
      "庖": 1604,
      "店": 1605,
      "庙": 1606,
      "庚": 1607,
      "府": 1608,
      "庞": 1609,
      "废": 1610,
      "庠": 1611,
      "庥": 1612,
      "度": 1613,
      "座": 1614,
      "庭": 1615,
      "庵": 1616,
      "庶": 1617,
      "康": 1618,
      "庸": 1619,
      "庹": 1620,
      "庾": 1621,
      "廉": 1622,
      "廊": 1623,
      "廓": 1624,
      "廖": 1625,
      "廪": 1626,
      "延": 1627,
      "建": 1628,
      "廿": 1629,
      "开": 1630,
      "弁": 1631,
      "异": 1632,
      "弃": 1633,
      "弄": 1634,
      "弈": 1635,
      "弊": 1636,
      "弋": 1637,
      "式": 1638,
      "弑": 1639,
      "弓": 1640,
      "引": 1641,
      "弗": 1642,
      "弘": 1643,
      "弛": 1644,
      "弟": 1645,
      "张": 1646,
      "弥": 1647,
      "弦": 1648,
      "弧": 1649,
      "弩": 1650,
      "弭": 1651,
      "弯": 1652,
      "弱": 1653,
      "弹": 1654,
      "强": 1655,
      "弼": 1656,
      "彀": 1657,
      "归": 1658,
      "当": 1659,
      "录": 1660,
      "彗": 1661,
      "彘": 1662,
      "彝": 1663,
      "彡": 1664,
      "形": 1665,
      "彤": 1666,
      "彦": 1667,
      "彩": 1668,
      "彪": 1669,
      "彬": 1670,
      "彭": 1671,
      "彰": 1672,
      "影": 1673,
      "彷": 1674,
      "役": 1675,
      "彻": 1676,
      "彼": 1677,
      "往": 1678,
      "征": 1679,
      "徂": 1680,
      "径": 1681,
      "待": 1682,
      "徇": 1683,
      "很": 1684,
      "徉": 1685,
      "徊": 1686,
      "律": 1687,
      "徐": 1688,
      "徒": 1689,
      "得": 1690,
      "徘": 1691,
      "徙": 1692,
      "徜": 1693,
      "御": 1694,
      "徨": 1695,
      "循": 1696,
      "微": 1697,
      "徵": 1698,
      "德": 1699,
      "徼": 1700,
      "徽": 1701,
      "心": 1702,
      "必": 1703,
      "忆": 1704,
      "忌": 1705,
      "忍": 1706,
      "忏": 1707,
      "忐": 1708,
      "忑": 1709,
      "忒": 1710,
      "志": 1711,
      "忘": 1712,
      "忙": 1713,
      "忝": 1714,
      "忠": 1715,
      "忡": 1716,
      "忤": 1717,
      "忧": 1718,
      "忪": 1719,
      "快": 1720,
      "忱": 1721,
      "念": 1722,
      "忸": 1723,
      "忻": 1724,
      "忽": 1725,
      "忾": 1726,
      "忿": 1727,
      "怀": 1728,
      "态": 1729,
      "怂": 1730,
      "怅": 1731,
      "怆": 1732,
      "怍": 1733,
      "怎": 1734,
      "怏": 1735,
      "怒": 1736,
      "怔": 1737,
      "怕": 1738,
      "怖": 1739,
      "怜": 1740,
      "思": 1741,
      "怠": 1742,
      "怡": 1743,
      "急": 1744,
      "怦": 1745,
      "性": 1746,
      "怨": 1747,
      "怪": 1748,
      "怯": 1749,
      "怵": 1750,
      "总": 1751,
      "怼": 1752,
      "怿": 1753,
      "恃": 1754,
      "恋": 1755,
      "恍": 1756,
      "恐": 1757,
      "恒": 1758,
      "恕": 1759,
      "恙": 1760,
      "恚": 1761,
      "恢": 1762,
      "恣": 1763,
      "恤": 1764,
      "恨": 1765,
      "恩": 1766,
      "恪": 1767,
      "恫": 1768,
      "恬": 1769,
      "恭": 1770,
      "息": 1771,
      "恰": 1772,
      "恳": 1773,
      "恶": 1774,
      "恸": 1775,
      "恹": 1776,
      "恻": 1777,
      "恼": 1778,
      "恿": 1779,
      "悄": 1780,
      "悉": 1781,
      "悍": 1782,
      "悒": 1783,
      "悔": 1784,
      "悖": 1785,
      "悚": 1786,
      "悛": 1787,
      "悟": 1788,
      "悠": 1789,
      "患": 1790,
      "悦": 1791,
      "您": 1792,
      "悬": 1793,
      "悯": 1794,
      "悱": 1795,
      "悲": 1796,
      "悴": 1797,
      "悸": 1798,
      "悼": 1799,
      "情": 1800,
      "惆": 1801,
      "惊": 1802,
      "惋": 1803,
      "惑": 1804,
      "惕": 1805,
      "惘": 1806,
      "惚": 1807,
      "惜": 1808,
      "惝": 1809,
      "惟": 1810,
      "惠": 1811,
      "惦": 1812,
      "惧": 1813,
      "惨": 1814,
      "惩": 1815,
      "惫": 1816,
      "惬": 1817,
      "惭": 1818,
      "惮": 1819,
      "惯": 1820,
      "惰": 1821,
      "想": 1822,
      "惴": 1823,
      "惶": 1824,
      "惹": 1825,
      "惺": 1826,
      "愀": 1827,
      "愁": 1828,
      "愈": 1829,
      "愉": 1830,
      "意": 1831,
      "愕": 1832,
      "愚": 1833,
      "感": 1834,
      "愠": 1835,
      "愣": 1836,
      "愤": 1837,
      "愦": 1838,
      "愧": 1839,
      "愫": 1840,
      "愿": 1841,
      "慈": 1842,
      "慊": 1843,
      "慌": 1844,
      "慎": 1845,
      "慑": 1846,
      "慕": 1847,
      "慢": 1848,
      "慧": 1849,
      "慨": 1850,
      "慰": 1851,
      "慵": 1852,
      "慷": 1853,
      "憋": 1854,
      "憎": 1855,
      "憔": 1856,
      "憧": 1857,
      "憨": 1858,
      "憩": 1859,
      "憬": 1860,
      "憷": 1861,
      "憾": 1862,
      "懂": 1863,
      "懈": 1864,
      "懊": 1865,
      "懑": 1866,
      "懒": 1867,
      "懔": 1868,
      "懦": 1869,
      "懵": 1870,
      "懿": 1871,
      "戈": 1872,
      "戊": 1873,
      "戌": 1874,
      "戎": 1875,
      "戏": 1876,
      "成": 1877,
      "我": 1878,
      "戒": 1879,
      "或": 1880,
      "战": 1881,
      "戚": 1882,
      "戛": 1883,
      "戟": 1884,
      "戢": 1885,
      "截": 1886,
      "戮": 1887,
      "戳": 1888,
      "戴": 1889,
      "户": 1890,
      "戾": 1891,
      "房": 1892,
      "所": 1893,
      "扁": 1894,
      "扇": 1895,
      "扈": 1896,
      "扉": 1897,
      "手": 1898,
      "扌": 1899,
      "才": 1900,
      "扎": 1901,
      "扑": 1902,
      "扒": 1903,
      "打": 1904,
      "扔": 1905,
      "托": 1906,
      "扛": 1907,
      "扣": 1908,
      "执": 1909,
      "扩": 1910,
      "扫": 1911,
      "扬": 1912,
      "扭": 1913,
      "扮": 1914,
      "扯": 1915,
      "扰": 1916,
      "扳": 1917,
      "扶": 1918,
      "批": 1919,
      "扼": 1920,
      "找": 1921,
      "承": 1922,
      "技": 1923,
      "抄": 1924,
      "抉": 1925,
      "把": 1926,
      "抑": 1927,
      "抒": 1928,
      "抓": 1929,
      "投": 1930,
      "抖": 1931,
      "抗": 1932,
      "折": 1933,
      "抚": 1934,
      "抛": 1935,
      "抟": 1936,
      "抡": 1937,
      "抢": 1938,
      "护": 1939,
      "报": 1940,
      "抨": 1941,
      "披": 1942,
      "抬": 1943,
      "抱": 1944,
      "抵": 1945,
      "抹": 1946,
      "抻": 1947,
      "押": 1948,
      "抽": 1949,
      "抿": 1950,
      "拂": 1951,
      "拄": 1952,
      "担": 1953,
      "拆": 1954,
      "拇": 1955,
      "拈": 1956,
      "拉": 1957,
      "拊": 1958,
      "拌": 1959,
      "拍": 1960,
      "拎": 1961,
      "拐": 1962,
      "拒": 1963,
      "拓": 1964,
      "拔": 1965,
      "拖": 1966,
      "拗": 1967,
      "拘": 1968,
      "拙": 1969,
      "招": 1970,
      "拜": 1971,
      "拟": 1972,
      "拢": 1973,
      "拣": 1974,
      "拥": 1975,
      "拦": 1976,
      "拧": 1977,
      "拨": 1978,
      "择": 1979,
      "括": 1980,
      "拭": 1981,
      "拯": 1982,
      "拱": 1983,
      "拳": 1984,
      "拴": 1985,
      "拷": 1986,
      "拼": 1987,
      "拽": 1988,
      "拾": 1989,
      "拿": 1990,
      "持": 1991,
      "挂": 1992,
      "指": 1993,
      "挈": 1994,
      "按": 1995,
      "挎": 1996,
      "挑": 1997,
      "挖": 1998,
      "挚": 1999,
      "挛": 2000,
      "挝": 2001,
      "挞": 2002,
      "挟": 2003,
      "挠": 2004,
      "挡": 2005,
      "挣": 2006,
      "挤": 2007,
      "挥": 2008,
      "挨": 2009,
      "挪": 2010,
      "挫": 2011,
      "振": 2012,
      "挲": 2013,
      "挺": 2014,
      "挽": 2015,
      "捂": 2016,
      "捅": 2017,
      "捆": 2018,
      "捉": 2019,
      "捋": 2020,
      "捌": 2021,
      "捍": 2022,
      "捎": 2023,
      "捏": 2024,
      "捐": 2025,
      "捕": 2026,
      "捞": 2027,
      "损": 2028,
      "捡": 2029,
      "换": 2030,
      "捣": 2031,
      "捧": 2032,
      "捭": 2033,
      "据": 2034,
      "捱": 2035,
      "捶": 2036,
      "捷": 2037,
      "捺": 2038,
      "捻": 2039,
      "掀": 2040,
      "掂": 2041,
      "授": 2042,
      "掉": 2043,
      "掌": 2044,
      "掏": 2045,
      "掐": 2046,
      "排": 2047,
      "掖": 2048,
      "掘": 2049,
      "掠": 2050,
      "探": 2051,
      "掣": 2052,
      "接": 2053,
      "控": 2054,
      "推": 2055,
      "掩": 2056,
      "措": 2057,
      "掬": 2058,
      "掮": 2059,
      "掰": 2060,
      "掳": 2061,
      "掴": 2062,
      "掷": 2063,
      "掸": 2064,
      "掺": 2065,
      "揄": 2066,
      "揆": 2067,
      "揉": 2068,
      "描": 2069,
      "提": 2070,
      "插": 2071,
      "揖": 2072,
      "握": 2073,
      "揣": 2074,
      "揪": 2075,
      "揭": 2076,
      "援": 2077,
      "揶": 2078,
      "揽": 2079,
      "揿": 2080,
      "搀": 2081,
      "搁": 2082,
      "搂": 2083,
      "搅": 2084,
      "搏": 2085,
      "搐": 2086,
      "搓": 2087,
      "搔": 2088,
      "搜": 2089,
      "搞": 2090,
      "搡": 2091,
      "搪": 2092,
      "搬": 2093,
      "搭": 2094,
      "搴": 2095,
      "携": 2096,
      "摄": 2097,
      "摆": 2098,
      "摇": 2099,
      "摈": 2100,
      "摊": 2101,
      "摒": 2102,
      "摔": 2103,
      "摘": 2104,
      "摞": 2105,
      "摧": 2106,
      "摩": 2107,
      "摸": 2108,
      "摹": 2109,
      "摺": 2110,
      "撂": 2111,
      "撄": 2112,
      "撅": 2113,
      "撇": 2114,
      "撑": 2115,
      "撒": 2116,
      "撕": 2117,
      "撞": 2118,
      "撤": 2119,
      "撩": 2120,
      "撬": 2121,
      "播": 2122,
      "撮": 2123,
      "撰": 2124,
      "撵": 2125,
      "撷": 2126,
      "撸": 2127,
      "撺": 2128,
      "撼": 2129,
      "擂": 2130,
      "擅": 2131,
      "操": 2132,
      "擎": 2133,
      "擒": 2134,
      "擘": 2135,
      "擞": 2136,
      "擢": 2137,
      "擦": 2138,
      "攀": 2139,
      "攒": 2140,
      "攘": 2141,
      "攥": 2142,
      "攫": 2143,
      "支": 2144,
      "攴": 2145,
      "收": 2146,
      "攸": 2147,
      "改": 2148,
      "攻": 2149,
      "放": 2150,
      "政": 2151,
      "故": 2152,
      "效": 2153,
      "敌": 2154,
      "敏": 2155,
      "救": 2156,
      "敕": 2157,
      "敖": 2158,
      "教": 2159,
      "敛": 2160,
      "敝": 2161,
      "敞": 2162,
      "敢": 2163,
      "散": 2164,
      "敦": 2165,
      "敬": 2166,
      "数": 2167,
      "敲": 2168,
      "整": 2169,
      "敷": 2170,
      "文": 2171,
      "斋": 2172,
      "斐": 2173,
      "斑": 2174,
      "斓": 2175,
      "斗": 2176,
      "料": 2177,
      "斜": 2178,
      "斟": 2179,
      "斡": 2180,
      "斤": 2181,
      "斥": 2182,
      "斧": 2183,
      "斩": 2184,
      "斫": 2185,
      "断": 2186,
      "斯": 2187,
      "新": 2188,
      "方": 2189,
      "於": 2190,
      "施": 2191,
      "旁": 2192,
      "旄": 2193,
      "旅": 2194,
      "旋": 2195,
      "旌": 2196,
      "旎": 2197,
      "族": 2198,
      "旒": 2199,
      "旖": 2200,
      "旗": 2201,
      "无": 2202,
      "既": 2203,
      "日": 2204,
      "旦": 2205,
      "旧": 2206,
      "旨": 2207,
      "早": 2208,
      "旬": 2209,
      "旭": 2210,
      "旮": 2211,
      "旯": 2212,
      "旰": 2213,
      "旱": 2214,
      "时": 2215,
      "旷": 2216,
      "旺": 2217,
      "昀": 2218,
      "昂": 2219,
      "昃": 2220,
      "昆": 2221,
      "昊": 2222,
      "昌": 2223,
      "明": 2224,
      "昏": 2225,
      "易": 2226,
      "昔": 2227,
      "昙": 2228,
      "星": 2229,
      "映": 2230,
      "春": 2231,
      "昧": 2232,
      "昨": 2233,
      "昭": 2234,
      "是": 2235,
      "昱": 2236,
      "昵": 2237,
      "昶": 2238,
      "昼": 2239,
      "显": 2240,
      "晁": 2241,
      "晃": 2242,
      "晋": 2243,
      "晌": 2244,
      "晏": 2245,
      "晒": 2246,
      "晓": 2247,
      "晔": 2248,
      "晕": 2249,
      "晖": 2250,
      "晗": 2251,
      "晚": 2252,
      "晟": 2253,
      "晦": 2254,
      "晨": 2255,
      "普": 2256,
      "景": 2257,
      "晰": 2258,
      "晴": 2259,
      "晶": 2260,
      "智": 2261,
      "晾": 2262,
      "暂": 2263,
      "暄": 2264,
      "暇": 2265,
      "暑": 2266,
      "暖": 2267,
      "暗": 2268,
      "暝": 2269,
      "暧": 2270,
      "暨": 2271,
      "暮": 2272,
      "暴": 2273,
      "曙": 2274,
      "曛": 2275,
      "曜": 2276,
      "曝": 2277,
      "曦": 2278,
      "曰": 2279,
      "曲": 2280,
      "曳": 2281,
      "更": 2282,
      "曹": 2283,
      "曼": 2284,
      "曾": 2285,
      "替": 2286,
      "最": 2287,
      "月": 2288,
      "有": 2289,
      "朋": 2290,
      "服": 2291,
      "朐": 2292,
      "朔": 2293,
      "朕": 2294,
      "朗": 2295,
      "望": 2296,
      "朝": 2297,
      "期": 2298,
      "朦": 2299,
      "木": 2300,
      "未": 2301,
      "末": 2302,
      "本": 2303,
      "术": 2304,
      "朱": 2305,
      "朴": 2306,
      "朵": 2307,
      "机": 2308,
      "朽": 2309,
      "杀": 2310,
      "杂": 2311,
      "权": 2312,
      "杆": 2313,
      "杈": 2314,
      "杉": 2315,
      "杌": 2316,
      "李": 2317,
      "杏": 2318,
      "材": 2319,
      "村": 2320,
      "杓": 2321,
      "杖": 2322,
      "杜": 2323,
      "杞": 2324,
      "束": 2325,
      "杠": 2326,
      "条": 2327,
      "来": 2328,
      "杨": 2329,
      "杪": 2330,
      "杭": 2331,
      "杯": 2332,
      "杰": 2333,
      "杲": 2334,
      "杳": 2335,
      "杵": 2336,
      "杷": 2337,
      "杼": 2338,
      "松": 2339,
      "板": 2340,
      "极": 2341,
      "构": 2342,
      "枇": 2343,
      "枉": 2344,
      "枋": 2345,
      "析": 2346,
      "枕": 2347,
      "林": 2348,
      "枘": 2349,
      "枚": 2350,
      "果": 2351,
      "枝": 2352,
      "枢": 2353,
      "枣": 2354,
      "枪": 2355,
      "枫": 2356,
      "枭": 2357,
      "枯": 2358,
      "枰": 2359,
      "枳": 2360,
      "架": 2361,
      "枷": 2362,
      "柄": 2363,
      "柏": 2364,
      "某": 2365,
      "柑": 2366,
      "染": 2367,
      "柔": 2368,
      "柘": 2369,
      "柙": 2370,
      "柚": 2371,
      "柜": 2372,
      "柝": 2373,
      "柞": 2374,
      "柠": 2375,
      "柢": 2376,
      "查": 2377,
      "柬": 2378,
      "柯": 2379,
      "柰": 2380,
      "柱": 2381,
      "柳": 2382,
      "柴": 2383,
      "柿": 2384,
      "栅": 2385,
      "标": 2386,
      "栈": 2387,
      "栉": 2388,
      "栋": 2389,
      "栏": 2390,
      "树": 2391,
      "栓": 2392,
      "栖": 2393,
      "栗": 2394,
      "栝": 2395,
      "校": 2396,
      "栩": 2397,
      "株": 2398,
      "样": 2399,
      "核": 2400,
      "根": 2401,
      "格": 2402,
      "栽": 2403,
      "桀": 2404,
      "桂": 2405,
      "桃": 2406,
      "桅": 2407,
      "框": 2408,
      "案": 2409,
      "桌": 2410,
      "桎": 2411,
      "桐": 2412,
      "桑": 2413,
      "桓": 2414,
      "桔": 2415,
      "桕": 2416,
      "桠": 2417,
      "桡": 2418,
      "档": 2419,
      "桥": 2420,
      "桦": 2421,
      "桨": 2422,
      "桩": 2423,
      "桶": 2424,
      "桷": 2425,
      "梁": 2426,
      "梅": 2427,
      "梏": 2428,
      "梓": 2429,
      "梗": 2430,
      "梢": 2431,
      "梦": 2432,
      "梧": 2433,
      "梨": 2434,
      "梭": 2435,
      "梯": 2436,
      "械": 2437,
      "梳": 2438,
      "梵": 2439,
      "检": 2440,
      "棂": 2441,
      "棉": 2442,
      "棋": 2443,
      "棍": 2444,
      "棒": 2445,
      "棕": 2446,
      "棘": 2447,
      "棚": 2448,
      "棠": 2449,
      "森": 2450,
      "棱": 2451,
      "棵": 2452,
      "棺": 2453,
      "椁": 2454,
      "椅": 2455,
      "椋": 2456,
      "植": 2457,
      "椎": 2458,
      "椒": 2459,
      "椤": 2460,
      "椭": 2461,
      "椰": 2462,
      "椿": 2463,
      "楔": 2464,
      "楚": 2465,
      "楞": 2466,
      "楠": 2467,
      "楷": 2468,
      "楸": 2469,
      "楹": 2470,
      "楼": 2471,
      "榀": 2472,
      "概": 2473,
      "榄": 2474,
      "榆": 2475,
      "榈": 2476,
      "榉": 2477,
      "榕": 2478,
      "榛": 2479,
      "榜": 2480,
      "榨": 2481,
      "榫": 2482,
      "榭": 2483,
      "榱": 2484,
      "榴": 2485,
      "榷": 2486,
      "榻": 2487,
      "槁": 2488,
      "槌": 2489,
      "槎": 2490,
      "槐": 2491,
      "槔": 2492,
      "槛": 2493,
      "槠": 2494,
      "槭": 2495,
      "槲": 2496,
      "槽": 2497,
      "槿": 2498,
      "樊": 2499,
      "樘": 2500,
      "樟": 2501,
      "模": 2502,
      "横": 2503,
      "樯": 2504,
      "樱": 2505,
      "樵": 2506,
      "樽": 2507,
      "樾": 2508,
      "橄": 2509,
      "橇": 2510,
      "橘": 2511,
      "橙": 2512,
      "橡": 2513,
      "橱": 2514,
      "橹": 2515,
      "檀": 2516,
      "檄": 2517,
      "檎": 2518,
      "檐": 2519,
      "檬": 2520,
      "欠": 2521,
      "次": 2522,
      "欢": 2523,
      "欣": 2524,
      "欤": 2525,
      "欧": 2526,
      "欲": 2527,
      "欷": 2528,
      "欹": 2529,
      "欺": 2530,
      "款": 2531,
      "歆": 2532,
      "歇": 2533,
      "歉": 2534,
      "歌": 2535,
      "歙": 2536,
      "止": 2537,
      "正": 2538,
      "此": 2539,
      "步": 2540,
      "武": 2541,
      "歧": 2542,
      "歪": 2543,
      "歹": 2544,
      "死": 2545,
      "歼": 2546,
      "殁": 2547,
      "殂": 2548,
      "殃": 2549,
      "殄": 2550,
      "殆": 2551,
      "殇": 2552,
      "殉": 2553,
      "殊": 2554,
      "残": 2555,
      "殍": 2556,
      "殒": 2557,
      "殓": 2558,
      "殖": 2559,
      "殚": 2560,
      "殛": 2561,
      "殳": 2562,
      "殴": 2563,
      "段": 2564,
      "殷": 2565,
      "殿": 2566,
      "毁": 2567,
      "毂": 2568,
      "毅": 2569,
      "毋": 2570,
      "母": 2571,
      "每": 2572,
      "毒": 2573,
      "毓": 2574,
      "比": 2575,
      "毕": 2576,
      "毖": 2577,
      "毗": 2578,
      "毙": 2579,
      "毛": 2580,
      "毡": 2581,
      "毫": 2582,
      "毯": 2583,
      "氏": 2584,
      "氐": 2585,
      "民": 2586,
      "气": 2587,
      "氖": 2588,
      "氚": 2589,
      "氛": 2590,
      "氡": 2591,
      "氢": 2592,
      "氤": 2593,
      "氧": 2594,
      "氨": 2595,
      "氩": 2596,
      "氪": 2597,
      "氯": 2598,
      "氰": 2599,
      "氲": 2600,
      "水": 2601,
      "永": 2602,
      "汀": 2603,
      "汁": 2604,
      "求": 2605,
      "汇": 2606,
      "汉": 2607,
      "汐": 2608,
      "汕": 2609,
      "汗": 2610,
      "汛": 2611,
      "汝": 2612,
      "江": 2613,
      "池": 2614,
      "污": 2615,
      "汤": 2616,
      "汩": 2617,
      "汪": 2618,
      "汰": 2619,
      "汲": 2620,
      "汶": 2621,
      "汹": 2622,
      "汽": 2623,
      "沁": 2624,
      "沂": 2625,
      "沃": 2626,
      "沆": 2627,
      "沈": 2628,
      "沉": 2629,
      "沌": 2630,
      "沐": 2631,
      "沓": 2632,
      "沙": 2633,
      "沛": 2634,
      "沟": 2635,
      "没": 2636,
      "沤": 2637,
      "沥": 2638,
      "沦": 2639,
      "沧": 2640,
      "沩": 2641,
      "沫": 2642,
      "沭": 2643,
      "沮": 2644,
      "沱": 2645,
      "河": 2646,
      "沸": 2647,
      "油": 2648,
      "治": 2649,
      "沼": 2650,
      "沽": 2651,
      "沾": 2652,
      "沿": 2653,
      "泄": 2654,
      "泉": 2655,
      "泊": 2656,
      "泌": 2657,
      "泓": 2658,
      "法": 2659,
      "泛": 2660,
      "泞": 2661,
      "泠": 2662,
      "泡": 2663,
      "波": 2664,
      "泣": 2665,
      "泥": 2666,
      "注": 2667,
      "泪": 2668,
      "泫": 2669,
      "泮": 2670,
      "泯": 2671,
      "泰": 2672,
      "泱": 2673,
      "泳": 2674,
      "泵": 2675,
      "泷": 2676,
      "泻": 2677,
      "泼": 2678,
      "泽": 2679,
      "泾": 2680,
      "洁": 2681,
      "洋": 2682,
      "洌": 2683,
      "洒": 2684,
      "洗": 2685,
      "洛": 2686,
      "洞": 2687,
      "津": 2688,
      "洪": 2689,
      "洮": 2690,
      "洲": 2691,
      "洳": 2692,
      "洹": 2693,
      "活": 2694,
      "洼": 2695,
      "洽": 2696,
      "派": 2697,
      "流": 2698,
      "浃": 2699,
      "浅": 2700,
      "浆": 2701,
      "浇": 2702,
      "浊": 2703,
      "测": 2704,
      "济": 2705,
      "浏": 2706,
      "浑": 2707,
      "浓": 2708,
      "浔": 2709,
      "浚": 2710,
      "浜": 2711,
      "浠": 2712,
      "浣": 2713,
      "浦": 2714,
      "浩": 2715,
      "浪": 2716,
      "浮": 2717,
      "浯": 2718,
      "浴": 2719,
      "海": 2720,
      "浸": 2721,
      "浼": 2722,
      "涂": 2723,
      "涅": 2724,
      "消": 2725,
      "涉": 2726,
      "涌": 2727,
      "涎": 2728,
      "涑": 2729,
      "涓": 2730,
      "涔": 2731,
      "涕": 2732,
      "涛": 2733,
      "涝": 2734,
      "涟": 2735,
      "涠": 2736,
      "涡": 2737,
      "涣": 2738,
      "涤": 2739,
      "润": 2740,
      "涧": 2741,
      "涨": 2742,
      "涩": 2743,
      "涫": 2744,
      "涮": 2745,
      "涯": 2746,
      "液": 2747,
      "涵": 2748,
      "涸": 2749,
      "涿": 2750,
      "淀": 2751,
      "淅": 2752,
      "淆": 2753,
      "淇": 2754,
      "淋": 2755,
      "淌": 2756,
      "淑": 2757,
      "淖": 2758,
      "淘": 2759,
      "淙": 2760,
      "淞": 2761,
      "淡": 2762,
      "淤": 2763,
      "淫": 2764,
      "淬": 2765,
      "淮": 2766,
      "深": 2767,
      "淳": 2768,
      "混": 2769,
      "淹": 2770,
      "添": 2771,
      "淼": 2772,
      "清": 2773,
      "渊": 2774,
      "渌": 2775,
      "渍": 2776,
      "渎": 2777,
      "渐": 2778,
      "渔": 2779,
      "渖": 2780,
      "渗": 2781,
      "渚": 2782,
      "渝": 2783,
      "渠": 2784,
      "渡": 2785,
      "渣": 2786,
      "渤": 2787,
      "渥": 2788,
      "温": 2789,
      "渭": 2790,
      "港": 2791,
      "渲": 2792,
      "渴": 2793,
      "游": 2794,
      "渺": 2795,
      "湃": 2796,
      "湍": 2797,
      "湎": 2798,
      "湔": 2799,
      "湖": 2800,
      "湛": 2801,
      "湟": 2802,
      "湫": 2803,
      "湮": 2804,
      "湾": 2805,
      "湿": 2806,
      "溃": 2807,
      "溅": 2808,
      "溆": 2809,
      "溉": 2810,
      "源": 2811,
      "溘": 2812,
      "溜": 2813,
      "溟": 2814,
      "溢": 2815,
      "溧": 2816,
      "溪": 2817,
      "溯": 2818,
      "溶": 2819,
      "溷": 2820,
      "溺": 2821,
      "滂": 2822,
      "滋": 2823,
      "滑": 2824,
      "滓": 2825,
      "滔": 2826,
      "滕": 2827,
      "滚": 2828,
      "滞": 2829,
      "滟": 2830,
      "满": 2831,
      "滢": 2832,
      "滤": 2833,
      "滥": 2834,
      "滦": 2835,
      "滨": 2836,
      "滩": 2837,
      "滴": 2838,
      "漂": 2839,
      "漆": 2840,
      "漉": 2841,
      "漏": 2842,
      "漓": 2843,
      "演": 2844,
      "漠": 2845,
      "漩": 2846,
      "漪": 2847,
      "漫": 2848,
      "漱": 2849,
      "漾": 2850,
      "潆": 2851,
      "潇": 2852,
      "潋": 2853,
      "潘": 2854,
      "潜": 2855,
      "潞": 2856,
      "潢": 2857,
      "潦": 2858,
      "潭": 2859,
      "潮": 2860,
      "潸": 2861,
      "潺": 2862,
      "澄": 2863,
      "澈": 2864,
      "澍": 2865,
      "澎": 2866,
      "澜": 2867,
      "澡": 2868,
      "澳": 2869,
      "澹": 2870,
      "激": 2871,
      "濉": 2872,
      "濒": 2873,
      "濡": 2874,
      "濮": 2875,
      "濯": 2876,
      "瀑": 2877,
      "瀚": 2878,
      "瀛": 2879,
      "瀣": 2880,
      "灌": 2881,
      "灏": 2882,
      "火": 2883,
      "灭": 2884,
      "灯": 2885,
      "灰": 2886,
      "灵": 2887,
      "灶": 2888,
      "灼": 2889,
      "灾": 2890,
      "灿": 2891,
      "炀": 2892,
      "炅": 2893,
      "炉": 2894,
      "炊": 2895,
      "炎": 2896,
      "炒": 2897,
      "炕": 2898,
      "炖": 2899,
      "炙": 2900,
      "炝": 2901,
      "炫": 2902,
      "炬": 2903,
      "炭": 2904,
      "炮": 2905,
      "炯": 2906,
      "炳": 2907,
      "炷": 2908,
      "炸": 2909,
      "点": 2910,
      "炼": 2911,
      "炽": 2912,
      "烁": 2913,
      "烂": 2914,
      "烈": 2915,
      "烊": 2916,
      "烘": 2917,
      "烙": 2918,
      "烛": 2919,
      "烟": 2920,
      "烤": 2921,
      "烦": 2922,
      "烧": 2923,
      "烨": 2924,
      "烫": 2925,
      "烬": 2926,
      "热": 2927,
      "烹": 2928,
      "烽": 2929,
      "焉": 2930,
      "焐": 2931,
      "焓": 2932,
      "焕": 2933,
      "焙": 2934,
      "焚": 2935,
      "焦": 2936,
      "焰": 2937,
      "焱": 2938,
      "然": 2939,
      "煅": 2940,
      "煊": 2941,
      "煌": 2942,
      "煎": 2943,
      "煜": 2944,
      "煞": 2945,
      "煤": 2946,
      "煦": 2947,
      "照": 2948,
      "煨": 2949,
      "煮": 2950,
      "煲": 2951,
      "煳": 2952,
      "煸": 2953,
      "煽": 2954,
      "熄": 2955,
      "熊": 2956,
      "熏": 2957,
      "熔": 2958,
      "熘": 2959,
      "熙": 2960,
      "熟": 2961,
      "熠": 2962,
      "熬": 2963,
      "熹": 2964,
      "燃": 2965,
      "燎": 2966,
      "燕": 2967,
      "燥": 2968,
      "燮": 2969,
      "爆": 2970,
      "爝": 2971,
      "爪": 2972,
      "爬": 2973,
      "爱": 2974,
      "爵": 2975,
      "父": 2976,
      "爷": 2977,
      "爸": 2978,
      "爹": 2979,
      "爻": 2980,
      "爽": 2981,
      "片": 2982,
      "版": 2983,
      "牌": 2984,
      "牍": 2985,
      "牒": 2986,
      "牖": 2987,
      "牙": 2988,
      "牛": 2989,
      "牝": 2990,
      "牟": 2991,
      "牡": 2992,
      "牢": 2993,
      "牧": 2994,
      "物": 2995,
      "牲": 2996,
      "牵": 2997,
      "特": 2998,
      "牺": 2999,
      "犀": 3000,
      "犁": 3001,
      "犄": 3002,
      "犒": 3003,
      "犬": 3004,
      "犯": 3005,
      "犴": 3006,
      "状": 3007,
      "犷": 3008,
      "犹": 3009,
      "狂": 3010,
      "狄": 3011,
      "狈": 3012,
      "狍": 3013,
      "狐": 3014,
      "狗": 3015,
      "狙": 3016,
      "狞": 3017,
      "狠": 3018,
      "狡": 3019,
      "狩": 3020,
      "独": 3021,
      "狭": 3022,
      "狮": 3023,
      "狯": 3024,
      "狰": 3025,
      "狱": 3026,
      "狷": 3027,
      "狸": 3028,
      "狺": 3029,
      "狻": 3030,
      "狼": 3031,
      "猎": 3032,
      "猓": 3033,
      "猖": 3034,
      "猗": 3035,
      "猛": 3036,
      "猜": 3037,
      "猝": 3038,
      "猥": 3039,
      "猩": 3040,
      "猪": 3041,
      "猫": 3042,
      "猬": 3043,
      "献": 3044,
      "猴": 3045,
      "猷": 3046,
      "猾": 3047,
      "猿": 3048,
      "獍": 3049,
      "獐": 3050,
      "獗": 3051,
      "獠": 3052,
      "獬": 3053,
      "獯": 3054,
      "獾": 3055,
      "玄": 3056,
      "率": 3057,
      "玉": 3058,
      "王": 3059,
      "玑": 3060,
      "玖": 3061,
      "玩": 3062,
      "玫": 3063,
      "环": 3064,
      "现": 3065,
      "玲": 3066,
      "玷": 3067,
      "玺": 3068,
      "玻": 3069,
      "珀": 3070,
      "珈": 3071,
      "珊": 3072,
      "珍": 3073,
      "珐": 3074,
      "珑": 3075,
      "珠": 3076,
      "班": 3077,
      "珲": 3078,
      "球": 3079,
      "琅": 3080,
      "理": 3081,
      "琉": 3082,
      "琐": 3083,
      "琛": 3084,
      "琢": 3085,
      "琥": 3086,
      "琪": 3087,
      "琮": 3088,
      "琳": 3089,
      "琴": 3090,
      "琵": 3091,
      "琶": 3092,
      "琼": 3093,
      "瑁": 3094,
      "瑕": 3095,
      "瑚": 3096,
      "瑜": 3097,
      "瑞": 3098,
      "瑟": 3099,
      "瑰": 3100,
      "瑶": 3101,
      "瑷": 3102,
      "瑾": 3103,
      "璀": 3104,
      "璃": 3105,
      "璇": 3106,
      "璋": 3107,
      "璐": 3108,
      "璞": 3109,
      "璧": 3110,
      "璨": 3111,
      "璩": 3112,
      "瓜": 3113,
      "瓢": 3114,
      "瓣": 3115,
      "瓤": 3116,
      "瓦": 3117,
      "瓮": 3118,
      "瓯": 3119,
      "瓶": 3120,
      "瓷": 3121,
      "瓿": 3122,
      "甄": 3123,
      "甍": 3124,
      "甑": 3125,
      "甓": 3126,
      "甘": 3127,
      "甚": 3128,
      "甜": 3129,
      "生": 3130,
      "甥": 3131,
      "用": 3132,
      "甩": 3133,
      "甫": 3134,
      "甬": 3135,
      "甯": 3136,
      "田": 3137,
      "由": 3138,
      "甲": 3139,
      "申": 3140,
      "电": 3141,
      "男": 3142,
      "甸": 3143,
      "画": 3144,
      "畅": 3145,
      "畈": 3146,
      "界": 3147,
      "畎": 3148,
      "畏": 3149,
      "畔": 3150,
      "留": 3151,
      "畛": 3152,
      "畜": 3153,
      "略": 3154,
      "番": 3155,
      "畲": 3156,
      "畴": 3157,
      "畸": 3158,
      "畹": 3159,
      "疃": 3160,
      "疆": 3161,
      "疏": 3162,
      "疑": 3163,
      "疗": 3164,
      "疙": 3165,
      "疚": 3166,
      "疠": 3167,
      "疤": 3168,
      "疫": 3169,
      "疮": 3170,
      "疯": 3171,
      "疲": 3172,
      "疴": 3173,
      "疵": 3174,
      "疼": 3175,
      "疽": 3176,
      "疾": 3177,
      "病": 3178,
      "症": 3179,
      "痈": 3180,
      "痉": 3181,
      "痊": 3182,
      "痍": 3183,
      "痒": 3184,
      "痕": 3185,
      "痘": 3186,
      "痛": 3187,
      "痢": 3188,
      "痣": 3189,
      "痪": 3190,
      "痰": 3191,
      "痴": 3192,
      "痹": 3193,
      "痼": 3194,
      "瘁": 3195,
      "瘛": 3196,
      "瘟": 3197,
      "瘠": 3198,
      "瘢": 3199,
      "瘤": 3200,
      "瘦": 3201,
      "瘩": 3202,
      "瘪": 3203,
      "瘫": 3204,
      "瘳": 3205,
      "瘴": 3206,
      "瘾": 3207,
      "癖": 3208,
      "癞": 3209,
      "癣": 3210,
      "癫": 3211,
      "癯": 3212,
      "癸": 3213,
      "登": 3214,
      "白": 3215,
      "百": 3216,
      "皂": 3217,
      "的": 3218,
      "皆": 3219,
      "皇": 3220,
      "皈": 3221,
      "皋": 3222,
      "皎": 3223,
      "皑": 3224,
      "皓": 3225,
      "皙": 3226,
      "皮": 3227,
      "皱": 3228,
      "皲": 3229,
      "皿": 3230,
      "盂": 3231,
      "盆": 3232,
      "盈": 3233,
      "益": 3234,
      "盍": 3235,
      "盎": 3236,
      "盏": 3237,
      "盐": 3238,
      "监": 3239,
      "盒": 3240,
      "盔": 3241,
      "盖": 3242,
      "盗": 3243,
      "盘": 3244,
      "盛": 3245,
      "盟": 3246,
      "目": 3247,
      "盯": 3248,
      "盱": 3249,
      "盲": 3250,
      "直": 3251,
      "相": 3252,
      "盼": 3253,
      "盾": 3254,
      "省": 3255,
      "眇": 3256,
      "眈": 3257,
      "眉": 3258,
      "看": 3259,
      "真": 3260,
      "眠": 3261,
      "眦": 3262,
      "眨": 3263,
      "眩": 3264,
      "眯": 3265,
      "眶": 3266,
      "眷": 3267,
      "眸": 3268,
      "眺": 3269,
      "眼": 3270,
      "着": 3271,
      "睁": 3272,
      "睐": 3273,
      "睑": 3274,
      "睚": 3275,
      "睛": 3276,
      "睡": 3277,
      "睢": 3278,
      "督": 3279,
      "睥": 3280,
      "睦": 3281,
      "睨": 3282,
      "睫": 3283,
      "睬": 3284,
      "睹": 3285,
      "睽": 3286,
      "睿": 3287,
      "瞄": 3288,
      "瞅": 3289,
      "瞎": 3290,
      "瞑": 3291,
      "瞒": 3292,
      "瞟": 3293,
      "瞠": 3294,
      "瞢": 3295,
      "瞥": 3296,
      "瞧": 3297,
      "瞩": 3298,
      "瞪": 3299,
      "瞬": 3300,
      "瞰": 3301,
      "瞳": 3302,
      "瞻": 3303,
      "瞽": 3304,
      "矗": 3305,
      "矛": 3306,
      "矜": 3307,
      "矢": 3308,
      "矣": 3309,
      "知": 3310,
      "矩": 3311,
      "矫": 3312,
      "短": 3313,
      "矮": 3314,
      "石": 3315,
      "矶": 3316,
      "矸": 3317,
      "矾": 3318,
      "矿": 3319,
      "码": 3320,
      "砂": 3321,
      "砌": 3322,
      "砍": 3323,
      "砑": 3324,
      "砒": 3325,
      "研": 3326,
      "砖": 3327,
      "砗": 3328,
      "砘": 3329,
      "砚": 3330,
      "砝": 3331,
      "砥": 3332,
      "砦": 3333,
      "砧": 3334,
      "砩": 3335,
      "砬": 3336,
      "砰": 3337,
      "破": 3338,
      "砷": 3339,
      "砸": 3340,
      "砺": 3341,
      "砼": 3342,
      "砾": 3343,
      "础": 3344,
      "硇": 3345,
      "硌": 3346,
      "硐": 3347,
      "硕": 3348,
      "硖": 3349,
      "硗": 3350,
      "硝": 3351,
      "硪": 3352,
      "硫": 3353,
      "硬": 3354,
      "硭": 3355,
      "确": 3356,
      "硼": 3357,
      "碇": 3358,
      "碉": 3359,
      "碌": 3360,
      "碍": 3361,
      "碎": 3362,
      "碑": 3363,
      "碗": 3364,
      "碚": 3365,
      "碛": 3366,
      "碜": 3367,
      "碟": 3368,
      "碣": 3369,
      "碧": 3370,
      "碰": 3371,
      "碱": 3372,
      "碳": 3373,
      "碴": 3374,
      "碾": 3375,
      "磁": 3376,
      "磅": 3377,
      "磊": 3378,
      "磋": 3379,
      "磐": 3380,
      "磔": 3381,
      "磕": 3382,
      "磨": 3383,
      "磬": 3384,
      "磴": 3385,
      "磷": 3386,
      "磺": 3387,
      "礁": 3388,
      "礴": 3389,
      "示": 3390,
      "礼": 3391,
      "社": 3392,
      "祀": 3393,
      "祁": 3394,
      "祈": 3395,
      "祉": 3396,
      "祓": 3397,
      "祖": 3398,
      "祗": 3399,
      "祚": 3400,
      "祛": 3401,
      "祜": 3402,
      "祝": 3403,
      "神": 3404,
      "祟": 3405,
      "祠": 3406,
      "祥": 3407,
      "票": 3408,
      "祭": 3409,
      "祯": 3410,
      "祷": 3411,
      "祸": 3412,
      "祺": 3413,
      "禀": 3414,
      "禁": 3415,
      "禄": 3416,
      "禅": 3417,
      "福": 3418,
      "禳": 3419,
      "禹": 3420,
      "离": 3421,
      "禽": 3422,
      "禾": 3423,
      "秀": 3424,
      "私": 3425,
      "秃": 3426,
      "秉": 3427,
      "秋": 3428,
      "种": 3429,
      "科": 3430,
      "秒": 3431,
      "秕": 3432,
      "秘": 3433,
      "租": 3434,
      "秣": 3435,
      "秤": 3436,
      "秦": 3437,
      "秧": 3438,
      "秩": 3439,
      "积": 3440,
      "称": 3441,
      "秸": 3442,
      "移": 3443,
      "秽": 3444,
      "稀": 3445,
      "程": 3446,
      "稍": 3447,
      "税": 3448,
      "稔": 3449,
      "稗": 3450,
      "稚": 3451,
      "稠": 3452,
      "稣": 3453,
      "稳": 3454,
      "稷": 3455,
      "稹": 3456,
      "稻": 3457,
      "稽": 3458,
      "稿": 3459,
      "穆": 3460,
      "穑": 3461,
      "穗": 3462,
      "穰": 3463,
      "穴": 3464,
      "究": 3465,
      "穷": 3466,
      "穸": 3467,
      "穹": 3468,
      "空": 3469,
      "穿": 3470,
      "突": 3471,
      "窃": 3472,
      "窄": 3473,
      "窈": 3474,
      "窍": 3475,
      "窑": 3476,
      "窒": 3477,
      "窕": 3478,
      "窖": 3479,
      "窗": 3480,
      "窘": 3481,
      "窜": 3482,
      "窝": 3483,
      "窟": 3484,
      "窠": 3485,
      "窥": 3486,
      "窦": 3487,
      "窬": 3488,
      "窳": 3489,
      "窿": 3490,
      "立": 3491,
      "竖": 3492,
      "站": 3493,
      "竞": 3494,
      "竟": 3495,
      "章": 3496,
      "竣": 3497,
      "童": 3498,
      "竦": 3499,
      "竭": 3500,
      "端": 3501,
      "竹": 3502,
      "竺": 3503,
      "竽": 3504,
      "竿": 3505,
      "笃": 3506,
      "笆": 3507,
      "笈": 3508,
      "笊": 3509,
      "笋": 3510,
      "笏": 3511,
      "笑": 3512,
      "笔": 3513,
      "笕": 3514,
      "笙": 3515,
      "笛": 3516,
      "笞": 3517,
      "笠": 3518,
      "笥": 3519,
      "符": 3520,
      "笨": 3521,
      "笪": 3522,
      "笫": 3523,
      "第": 3524,
      "笮": 3525,
      "笱": 3526,
      "笳": 3527,
      "笸": 3528,
      "笺": 3529,
      "笼": 3530,
      "笾": 3531,
      "筇": 3532,
      "等": 3533,
      "筋": 3534,
      "筏": 3535,
      "筐": 3536,
      "筑": 3537,
      "筒": 3538,
      "答": 3539,
      "策": 3540,
      "筛": 3541,
      "筝": 3542,
      "筠": 3543,
      "筮": 3544,
      "筱": 3545,
      "筵": 3546,
      "筷": 3547,
      "筹": 3548,
      "签": 3549,
      "简": 3550,
      "箍": 3551,
      "箔": 3552,
      "箕": 3553,
      "算": 3554,
      "管": 3555,
      "箩": 3556,
      "箫": 3557,
      "箭": 3558,
      "箱": 3559,
      "箴": 3560,
      "箸": 3561,
      "篆": 3562,
      "篇": 3563,
      "篑": 3564,
      "篝": 3565,
      "篡": 3566,
      "篦": 3567,
      "篪": 3568,
      "篮": 3569,
      "篱": 3570,
      "篷": 3571,
      "篾": 3572,
      "簇": 3573,
      "簌": 3574,
      "簟": 3575,
      "簦": 3576,
      "簧": 3577,
      "簪": 3578,
      "簸": 3579,
      "簿": 3580,
      "籀": 3581,
      "籁": 3582,
      "籍": 3583,
      "米": 3584,
      "类": 3585,
      "粉": 3586,
      "粒": 3587,
      "粕": 3588,
      "粗": 3589,
      "粘": 3590,
      "粝": 3591,
      "粟": 3592,
      "粢": 3593,
      "粤": 3594,
      "粥": 3595,
      "粪": 3596,
      "粮": 3597,
      "粱": 3598,
      "粲": 3599,
      "粹": 3600,
      "粼": 3601,
      "粽": 3602,
      "精": 3603,
      "糁": 3604,
      "糅": 3605,
      "糊": 3606,
      "糕": 3607,
      "糖": 3608,
      "糙": 3609,
      "糜": 3610,
      "糟": 3611,
      "糠": 3612,
      "系": 3613,
      "紊": 3614,
      "素": 3615,
      "索": 3616,
      "紧": 3617,
      "紫": 3618,
      "累": 3619,
      "絮": 3620,
      "絷": 3621,
      "縻": 3622,
      "繁": 3623,
      "纛": 3624,
      "纠": 3625,
      "纡": 3626,
      "红": 3627,
      "纣": 3628,
      "纤": 3629,
      "约": 3630,
      "级": 3631,
      "纨": 3632,
      "纪": 3633,
      "纬": 3634,
      "纭": 3635,
      "纯": 3636,
      "纰": 3637,
      "纱": 3638,
      "纲": 3639,
      "纳": 3640,
      "纵": 3641,
      "纶": 3642,
      "纷": 3643,
      "纸": 3644,
      "纹": 3645,
      "纺": 3646,
      "纽": 3647,
      "纾": 3648,
      "线": 3649,
      "绁": 3650,
      "练": 3651,
      "组": 3652,
      "绅": 3653,
      "细": 3654,
      "织": 3655,
      "终": 3656,
      "绊": 3657,
      "绍": 3658,
      "绎": 3659,
      "经": 3660,
      "绑": 3661,
      "绒": 3662,
      "结": 3663,
      "绔": 3664,
      "绕": 3665,
      "绘": 3666,
      "给": 3667,
      "绚": 3668,
      "绛": 3669,
      "络": 3670,
      "绝": 3671,
      "绞": 3672,
      "统": 3673,
      "绡": 3674,
      "绣": 3675,
      "绥": 3676,
      "绦": 3677,
      "继": 3678,
      "绩": 3679,
      "绪": 3680,
      "绫": 3681,
      "续": 3682,
      "绮": 3683,
      "绯": 3684,
      "绰": 3685,
      "绱": 3686,
      "绳": 3687,
      "维": 3688,
      "绵": 3689,
      "绶": 3690,
      "绷": 3691,
      "绸": 3692,
      "绺": 3693,
      "绻": 3694,
      "综": 3695,
      "绽": 3696,
      "绾": 3697,
      "绿": 3698,
      "缀": 3699,
      "缁": 3700,
      "缂": 3701,
      "缃": 3702,
      "缄": 3703,
      "缅": 3704,
      "缇": 3705,
      "缈": 3706,
      "缉": 3707,
      "缌": 3708,
      "缍": 3709,
      "缎": 3710,
      "缓": 3711,
      "缔": 3712,
      "缕": 3713,
      "编": 3714,
      "缘": 3715,
      "缙": 3716,
      "缚": 3717,
      "缛": 3718,
      "缜": 3719,
      "缝": 3720,
      "缟": 3721,
      "缠": 3722,
      "缡": 3723,
      "缢": 3724,
      "缤": 3725,
      "缥": 3726,
      "缦": 3727,
      "缧": 3728,
      "缨": 3729,
      "缩": 3730,
      "缪": 3731,
      "缫": 3732,
      "缬": 3733,
      "缭": 3734,
      "缮": 3735,
      "缰": 3736,
      "缱": 3737,
      "缴": 3738,
      "缶": 3739,
      "缸": 3740,
      "缺": 3741,
      "罂": 3742,
      "罄": 3743,
      "罅": 3744,
      "罐": 3745,
      "网": 3746,
      "罔": 3747,
      "罕": 3748,
      "罗": 3749,
      "罚": 3750,
      "罟": 3751,
      "罡": 3752,
      "罢": 3753,
      "罩": 3754,
      "罪": 3755,
      "置": 3756,
      "署": 3757,
      "罹": 3758,
      "羁": 3759,
      "羊": 3760,
      "羌": 3761,
      "美": 3762,
      "羔": 3763,
      "羚": 3764,
      "羞": 3765,
      "羟": 3766,
      "羡": 3767,
      "群": 3768,
      "羧": 3769,
      "羰": 3770,
      "羲": 3771,
      "羸": 3772,
      "羹": 3773,
      "羽": 3774,
      "羿": 3775,
      "翁": 3776,
      "翅": 3777,
      "翊": 3778,
      "翌": 3779,
      "翎": 3780,
      "翔": 3781,
      "翕": 3782,
      "翘": 3783,
      "翟": 3784,
      "翠": 3785,
      "翡": 3786,
      "翥": 3787,
      "翦": 3788,
      "翩": 3789,
      "翮": 3790,
      "翰": 3791,
      "翱": 3792,
      "翳": 3793,
      "翻": 3794,
      "翼": 3795,
      "耀": 3796,
      "老": 3797,
      "考": 3798,
      "耄": 3799,
      "者": 3800,
      "耆": 3801,
      "耋": 3802,
      "而": 3803,
      "耍": 3804,
      "耐": 3805,
      "耒": 3806,
      "耕": 3807,
      "耗": 3808,
      "耘": 3809,
      "耙": 3810,
      "耨": 3811,
      "耪": 3812,
      "耳": 3813,
      "耶": 3814,
      "耷": 3815,
      "耸": 3816,
      "耻": 3817,
      "耽": 3818,
      "耿": 3819,
      "聆": 3820,
      "聊": 3821,
      "聋": 3822,
      "职": 3823,
      "聒": 3824,
      "联": 3825,
      "聘": 3826,
      "聚": 3827,
      "聩": 3828,
      "聪": 3829,
      "聿": 3830,
      "肀": 3831,
      "肃": 3832,
      "肆": 3833,
      "肇": 3834,
      "肉": 3835,
      "肋": 3836,
      "肌": 3837,
      "肓": 3838,
      "肖": 3839,
      "肘": 3840,
      "肚": 3841,
      "肜": 3842,
      "肝": 3843,
      "肟": 3844,
      "肠": 3845,
      "股": 3846,
      "肢": 3847,
      "肤": 3848,
      "肥": 3849,
      "肩": 3850,
      "肪": 3851,
      "肫": 3852,
      "肮": 3853,
      "肯": 3854,
      "育": 3855,
      "肴": 3856,
      "肷": 3857,
      "肺": 3858,
      "肾": 3859,
      "肿": 3860,
      "胀": 3861,
      "胁": 3862,
      "胂": 3863,
      "胃": 3864,
      "胄": 3865,
      "胆": 3866,
      "背": 3867,
      "胍": 3868,
      "胎": 3869,
      "胖": 3870,
      "胗": 3871,
      "胚": 3872,
      "胛": 3873,
      "胜": 3874,
      "胞": 3875,
      "胡": 3876,
      "胤": 3877,
      "胧": 3878,
      "胨": 3879,
      "胪": 3880,
      "胫": 3881,
      "胭": 3882,
      "胯": 3883,
      "胰": 3884,
      "胳": 3885,
      "胶": 3886,
      "胸": 3887,
      "能": 3888,
      "脂": 3889,
      "脆": 3890,
      "脉": 3891,
      "脊": 3892,
      "脏": 3893,
      "脐": 3894,
      "脑": 3895,
      "脒": 3896,
      "脓": 3897,
      "脖": 3898,
      "脚": 3899,
      "脯": 3900,
      "脱": 3901,
      "脸": 3902,
      "脾": 3903,
      "腆": 3904,
      "腊": 3905,
      "腋": 3906,
      "腌": 3907,
      "腐": 3908,
      "腑": 3909,
      "腔": 3910,
      "腕": 3911,
      "腙": 3912,
      "腥": 3913,
      "腭": 3914,
      "腮": 3915,
      "腰": 3916,
      "腱": 3917,
      "腹": 3918,
      "腻": 3919,
      "腼": 3920,
      "腾": 3921,
      "腿": 3922,
      "膀": 3923,
      "膊": 3924,
      "膏": 3925,
      "膛": 3926,
      "膜": 3927,
      "膝": 3928,
      "膨": 3929,
      "膳": 3930,
      "膺": 3931,
      "膻": 3932,
      "臀": 3933,
      "臁": 3934,
      "臂": 3935,
      "臃": 3936,
      "臆": 3937,
      "臊": 3938,
      "臣": 3939,
      "臧": 3940,
      "自": 3941,
      "臬": 3942,
      "臭": 3943,
      "至": 3944,
      "致": 3945,
      "臻": 3946,
      "臼": 3947,
      "臾": 3948,
      "舀": 3949,
      "舂": 3950,
      "舅": 3951,
      "舆": 3952,
      "舌": 3953,
      "舍": 3954,
      "舐": 3955,
      "舒": 3956,
      "舔": 3957,
      "舛": 3958,
      "舜": 3959,
      "舞": 3960,
      "舟": 3961,
      "舨": 3962,
      "航": 3963,
      "舫": 3964,
      "般": 3965,
      "舱": 3966,
      "舳": 3967,
      "舴": 3968,
      "舵": 3969,
      "舶": 3970,
      "舷": 3971,
      "船": 3972,
      "艄": 3973,
      "艇": 3974,
      "艘": 3975,
      "艮": 3976,
      "良": 3977,
      "艰": 3978,
      "色": 3979,
      "艳": 3980,
      "艺": 3981,
      "艾": 3982,
      "艿": 3983,
      "节": 3984,
      "芄": 3985,
      "芊": 3986,
      "芍": 3987,
      "芎": 3988,
      "芏": 3989,
      "芑": 3990,
      "芒": 3991,
      "芗": 3992,
      "芘": 3993,
      "芙": 3994,
      "芜": 3995,
      "芝": 3996,
      "芟": 3997,
      "芡": 3998,
      "芤": 3999,
      "芥": 4000,
      "芦": 4001,
      "芪": 4002,
      "芬": 4003,
      "芭": 4004,
      "芮": 4005,
      "芯": 4006,
      "芰": 4007,
      "花": 4008,
      "芳": 4009,
      "芷": 4010,
      "芸": 4011,
      "芽": 4012,
      "芾": 4013,
      "苁": 4014,
      "苇": 4015,
      "苈": 4016,
      "苊": 4017,
      "苍": 4018,
      "苎": 4019,
      "苏": 4020,
      "苑": 4021,
      "苒": 4022,
      "苓": 4023,
      "苔": 4024,
      "苗": 4025,
      "苛": 4026,
      "苟": 4027,
      "苠": 4028,
      "苡": 4029,
      "若": 4030,
      "苦": 4031,
      "苯": 4032,
      "英": 4033,
      "苷": 4034,
      "苹": 4035,
      "茁": 4036,
      "茂": 4037,
      "范": 4038,
      "茄": 4039,
      "茅": 4040,
      "茉": 4041,
      "茎": 4042,
      "茏": 4043,
      "茑": 4044,
      "茔": 4045,
      "茕": 4046,
      "茗": 4047,
      "茧": 4048,
      "茨": 4049,
      "茫": 4050,
      "茬": 4051,
      "茯": 4052,
      "茵": 4053,
      "茶": 4054,
      "茸": 4055,
      "茹": 4056,
      "荀": 4057,
      "荆": 4058,
      "草": 4059,
      "荏": 4060,
      "荐": 4061,
      "荑": 4062,
      "荒": 4063,
      "荚": 4064,
      "荜": 4065,
      "荟": 4066,
      "荡": 4067,
      "荣": 4068,
      "荤": 4069,
      "荧": 4070,
      "荨": 4071,
      "荩": 4072,
      "荫": 4073,
      "药": 4074,
      "荷": 4075,
      "荻": 4076,
      "荼": 4077,
      "莅": 4078,
      "莆": 4079,
      "莒": 4080,
      "莓": 4081,
      "莠": 4082,
      "莨": 4083,
      "莫": 4084,
      "莱": 4085,
      "莲": 4086,
      "莶": 4087,
      "获": 4088,
      "莸": 4089,
      "莹": 4090,
      "莺": 4091,
      "莼": 4092,
      "莽": 4093,
      "菀": 4094,
      "菁": 4095,
      "菇": 4096,
      "菊": 4097,
      "菌": 4098,
      "菔": 4099,
      "菜": 4100,
      "菝": 4101,
      "菠": 4102,
      "菩": 4103,
      "菪": 4104,
      "菰": 4105,
      "菱": 4106,
      "菲": 4107,
      "菸": 4108,
      "菽": 4109,
      "萃": 4110,
      "萄": 4111,
      "萋": 4112,
      "萌": 4113,
      "萍": 4114,
      "萎": 4115,
      "萑": 4116,
      "萘": 4117,
      "萝": 4118,
      "萤": 4119,
      "营": 4120,
      "萦": 4121,
      "萧": 4122,
      "萨": 4123,
      "落": 4124,
      "葆": 4125,
      "葑": 4126,
      "著": 4127,
      "葛": 4128,
      "葜": 4129,
      "葡": 4130,
      "董": 4131,
      "葩": 4132,
      "葫": 4133,
      "葬": 4134,
      "葱": 4135,
      "葳": 4136,
      "葵": 4137,
      "葸": 4138,
      "葺": 4139,
      "蒂": 4140,
      "蒙": 4141,
      "蒜": 4142,
      "蒲": 4143,
      "蒴": 4144,
      "蒸": 4145,
      "蓁": 4146,
      "蓄": 4147,
      "蓉": 4148,
      "蓊": 4149,
      "蓍": 4150,
      "蓖": 4151,
      "蓝": 4152,
      "蓟": 4153,
      "蓠": 4154,
      "蓦": 4155,
      "蓬": 4156,
      "蓿": 4157,
      "蔌": 4158,
      "蔑": 4159,
      "蔓": 4160,
      "蔗": 4161,
      "蔚": 4162,
      "蔡": 4163,
      "蔬": 4164,
      "蔷": 4165,
      "蔻": 4166,
      "蔼": 4167,
      "蔽": 4168,
      "蕉": 4169,
      "蕊": 4170,
      "蕙": 4171,
      "蕤": 4172,
      "蕨": 4173,
      "蕴": 4174,
      "蕾": 4175,
      "薄": 4176,
      "薇": 4177,
      "薏": 4178,
      "薛": 4179,
      "薜": 4180,
      "薪": 4181,
      "薮": 4182,
      "薰": 4183,
      "薹": 4184,
      "藉": 4185,
      "藏": 4186,
      "藐": 4187,
      "藓": 4188,
      "藕": 4189,
      "藤": 4190,
      "藩": 4191,
      "藻": 4192,
      "蘅": 4193,
      "蘑": 4194,
      "蘖": 4195,
      "蘧": 4196,
      "蘩": 4197,
      "蘸": 4198,
      "蘼": 4199,
      "虎": 4200,
      "虏": 4201,
      "虐": 4202,
      "虑": 4203,
      "虔": 4204,
      "虚": 4205,
      "虞": 4206,
      "虢": 4207,
      "虫": 4208,
      "虬": 4209,
      "虱": 4210,
      "虹": 4211,
      "虺": 4212,
      "虻": 4213,
      "虽": 4214,
      "虾": 4215,
      "蚀": 4216,
      "蚁": 4217,
      "蚂": 4218,
      "蚊": 4219,
      "蚋": 4220,
      "蚌": 4221,
      "蚍": 4222,
      "蚓": 4223,
      "蚕": 4224,
      "蚝": 4225,
      "蚣": 4226,
      "蚤": 4227,
      "蚧": 4228,
      "蚨": 4229,
      "蚩": 4230,
      "蚪": 4231,
      "蚬": 4232,
      "蚯": 4233,
      "蚰": 4234,
      "蚱": 4235,
      "蚴": 4236,
      "蚶": 4237,
      "蛀": 4238,
      "蛄": 4239,
      "蛆": 4240,
      "蛇": 4241,
      "蛉": 4242,
      "蛊": 4243,
      "蛋": 4244,
      "蛎": 4245,
      "蛏": 4246,
      "蛑": 4247,
      "蛔": 4248,
      "蛘": 4249,
      "蛙": 4250,
      "蛛": 4251,
      "蛞": 4252,
      "蛟": 4253,
      "蛤": 4254,
      "蛩": 4255,
      "蛭": 4256,
      "蛮": 4257,
      "蛰": 4258,
      "蛱": 4259,
      "蛲": 4260,
      "蛳": 4261,
      "蛹": 4262,
      "蛾": 4263,
      "蜂": 4264,
      "蜃": 4265,
      "蜈": 4266,
      "蜉": 4267,
      "蜍": 4268,
      "蜒": 4269,
      "蜕": 4270,
      "蜗": 4271,
      "蜘": 4272,
      "蜚": 4273,
      "蜜": 4274,
      "蜡": 4275,
      "蜥": 4276,
      "蜩": 4277,
      "蜮": 4278,
      "蜴": 4279,
      "蜷": 4280,
      "蜻": 4281,
      "蜿": 4282,
      "蝇": 4283,
      "蝉": 4284,
      "蝌": 4285,
      "蝎": 4286,
      "蝓": 4287,
      "蝗": 4288,
      "蝙": 4289,
      "蝠": 4290,
      "蝣": 4291,
      "蝮": 4292,
      "蝴": 4293,
      "蝶": 4294,
      "蝼": 4295,
      "螂": 4296,
      "螅": 4297,
      "融": 4298,
      "螓": 4299,
      "螭": 4300,
      "螳": 4301,
      "螺": 4302,
      "螽": 4303,
      "蟆": 4304,
      "蟊": 4305,
      "蟑": 4306,
      "蟒": 4307,
      "蟛": 4308,
      "蟠": 4309,
      "蟪": 4310,
      "蟮": 4311,
      "蟹": 4312,
      "蟾": 4313,
      "蠊": 4314,
      "蠓": 4315,
      "蠕": 4316,
      "蠛": 4317,
      "蠡": 4318,
      "蠢": 4319,
      "蠹": 4320,
      "蠼": 4321,
      "血": 4322,
      "衅": 4323,
      "行": 4324,
      "衍": 4325,
      "衔": 4326,
      "街": 4327,
      "衙": 4328,
      "衡": 4329,
      "衢": 4330,
      "衣": 4331,
      "补": 4332,
      "表": 4333,
      "衩": 4334,
      "衫": 4335,
      "衬": 4336,
      "衰": 4337,
      "衲": 4338,
      "衷": 4339,
      "衽": 4340,
      "衾": 4341,
      "袁": 4342,
      "袂": 4343,
      "袅": 4344,
      "袈": 4345,
      "袋": 4346,
      "袍": 4347,
      "袒": 4348,
      "袖": 4349,
      "袢": 4350,
      "袤": 4351,
      "被": 4352,
      "袭": 4353,
      "袱": 4354,
      "袷": 4355,
      "裁": 4356,
      "裂": 4357,
      "装": 4358,
      "裉": 4359,
      "裎": 4360,
      "裔": 4361,
      "裕": 4362,
      "裘": 4363,
      "裙": 4364,
      "裟": 4365,
      "裤": 4366,
      "裨": 4367,
      "裰": 4368,
      "裱": 4369,
      "裳": 4370,
      "裴": 4371,
      "裸": 4372,
      "裹": 4373,
      "裾": 4374,
      "褂": 4375,
      "褊": 4376,
      "褐": 4377,
      "褒": 4378,
      "褓": 4379,
      "褚": 4380,
      "褛": 4381,
      "褪": 4382,
      "褴": 4383,
      "褶": 4384,
      "襁": 4385,
      "襄": 4386,
      "襟": 4387,
      "西": 4388,
      "要": 4389,
      "覆": 4390,
      "见": 4391,
      "观": 4392,
      "规": 4393,
      "觅": 4394,
      "视": 4395,
      "览": 4396,
      "觉": 4397,
      "觊": 4398,
      "觎": 4399,
      "觐": 4400,
      "觑": 4401,
      "角": 4402,
      "觜": 4403,
      "觞": 4404,
      "解": 4405,
      "觥": 4406,
      "触": 4407,
      "觯": 4408,
      "言": 4409,
      "訇": 4410,
      "詈": 4411,
      "詹": 4412,
      "誉": 4413,
      "誓": 4414,
      "警": 4415,
      "譬": 4416,
      "计": 4417,
      "订": 4418,
      "讣": 4419,
      "认": 4420,
      "讥": 4421,
      "讧": 4422,
      "讨": 4423,
      "让": 4424,
      "讪": 4425,
      "训": 4426,
      "议": 4427,
      "讯": 4428,
      "记": 4429,
      "讲": 4430,
      "讳": 4431,
      "讶": 4432,
      "讷": 4433,
      "许": 4434,
      "讹": 4435,
      "论": 4436,
      "讼": 4437,
      "讽": 4438,
      "设": 4439,
      "访": 4440,
      "诀": 4441,
      "证": 4442,
      "评": 4443,
      "诅": 4444,
      "识": 4445,
      "诈": 4446,
      "诉": 4447,
      "诊": 4448,
      "诋": 4449,
      "词": 4450,
      "诎": 4451,
      "诏": 4452,
      "译": 4453,
      "诒": 4454,
      "诓": 4455,
      "诔": 4456,
      "试": 4457,
      "诖": 4458,
      "诗": 4459,
      "诘": 4460,
      "诙": 4461,
      "诚": 4462,
      "诛": 4463,
      "诜": 4464,
      "话": 4465,
      "诞": 4466,
      "诟": 4467,
      "诠": 4468,
      "诡": 4469,
      "询": 4470,
      "诣": 4471,
      "诤": 4472,
      "该": 4473,
      "详": 4474,
      "诧": 4475,
      "诨": 4476,
      "诩": 4477,
      "诫": 4478,
      "诬": 4479,
      "语": 4480,
      "诮": 4481,
      "误": 4482,
      "诰": 4483,
      "诱": 4484,
      "诲": 4485,
      "诳": 4486,
      "说": 4487,
      "诵": 4488,
      "诶": 4489,
      "请": 4490,
      "诸": 4491,
      "诹": 4492,
      "诺": 4493,
      "读": 4494,
      "诽": 4495,
      "课": 4496,
      "诿": 4497,
      "谀": 4498,
      "谁": 4499,
      "谂": 4500,
      "调": 4501,
      "谄": 4502,
      "谅": 4503,
      "谈": 4504,
      "谊": 4505,
      "谋": 4506,
      "谌": 4507,
      "谎": 4508,
      "谏": 4509,
      "谐": 4510,
      "谑": 4511,
      "谒": 4512,
      "谓": 4513,
      "谔": 4514,
      "谕": 4515,
      "谖": 4516,
      "谗": 4517,
      "谘": 4518,
      "谙": 4519,
      "谛": 4520,
      "谜": 4521,
      "谟": 4522,
      "谡": 4523,
      "谢": 4524,
      "谣": 4525,
      "谤": 4526,
      "谥": 4527,
      "谦": 4528,
      "谧": 4529,
      "谨": 4530,
      "谩": 4531,
      "谪": 4532,
      "谬": 4533,
      "谭": 4534,
      "谯": 4535,
      "谰": 4536,
      "谱": 4537,
      "谲": 4538,
      "谴": 4539,
      "谶": 4540,
      "谷": 4541,
      "豁": 4542,
      "豆": 4543,
      "豌": 4544,
      "豕": 4545,
      "豚": 4546,
      "象": 4547,
      "豢": 4548,
      "豪": 4549,
      "豫": 4550,
      "豸": 4551,
      "豹": 4552,
      "豺": 4553,
      "貂": 4554,
      "貉": 4555,
      "貌": 4556,
      "貔": 4557,
      "貘": 4558,
      "贝": 4559,
      "贞": 4560,
      "负": 4561,
      "贡": 4562,
      "财": 4563,
      "责": 4564,
      "贤": 4565,
      "败": 4566,
      "账": 4567,
      "货": 4568,
      "质": 4569,
      "贩": 4570,
      "贪": 4571,
      "贫": 4572,
      "贬": 4573,
      "购": 4574,
      "贮": 4575,
      "贯": 4576,
      "贰": 4577,
      "贱": 4578,
      "贲": 4579,
      "贴": 4580,
      "贵": 4581,
      "贷": 4582,
      "贸": 4583,
      "费": 4584,
      "贺": 4585,
      "贻": 4586,
      "贼": 4587,
      "贾": 4588,
      "贿": 4589,
      "赂": 4590,
      "赃": 4591,
      "资": 4592,
      "赅": 4593,
      "赋": 4594,
      "赌": 4595,
      "赎": 4596,
      "赏": 4597,
      "赐": 4598,
      "赔": 4599,
      "赖": 4600,
      "赘": 4601,
      "赚": 4602,
      "赛": 4603,
      "赜": 4604,
      "赝": 4605,
      "赞": 4606,
      "赠": 4607,
      "赡": 4608,
      "赢": 4609,
      "赣": 4610,
      "赤": 4611,
      "赦": 4612,
      "赧": 4613,
      "赫": 4614,
      "赭": 4615,
      "走": 4616,
      "赴": 4617,
      "赵": 4618,
      "赶": 4619,
      "起": 4620,
      "趁": 4621,
      "趄": 4622,
      "超": 4623,
      "越": 4624,
      "趋": 4625,
      "趔": 4626,
      "趟": 4627,
      "趣": 4628,
      "足": 4629,
      "趴": 4630,
      "趸": 4631,
      "趺": 4632,
      "趾": 4633,
      "跃": 4634,
      "跄": 4635,
      "跆": 4636,
      "跋": 4637,
      "跌": 4638,
      "跎": 4639,
      "跏": 4640,
      "跑": 4641,
      "跗": 4642,
      "跚": 4643,
      "距": 4644,
      "跟": 4645,
      "跣": 4646,
      "跤": 4647,
      "跨": 4648,
      "跪": 4649,
      "跬": 4650,
      "路": 4651,
      "跳": 4652,
      "践": 4653,
      "跷": 4654,
      "跸": 4655,
      "跹": 4656,
      "跺": 4657,
      "跻": 4658,
      "踅": 4659,
      "踉": 4660,
      "踊": 4661,
      "踌": 4662,
      "踏": 4663,
      "踔": 4664,
      "踝": 4665,
      "踞": 4666,
      "踟": 4667,
      "踢": 4668,
      "踩": 4669,
      "踪": 4670,
      "踮": 4671,
      "踯": 4672,
      "踱": 4673,
      "踵": 4674,
      "踹": 4675,
      "蹂": 4676,
      "蹄": 4677,
      "蹇": 4678,
      "蹈": 4679,
      "蹉": 4680,
      "蹊": 4681,
      "蹋": 4682,
      "蹑": 4683,
      "蹒": 4684,
      "蹙": 4685,
      "蹦": 4686,
      "蹬": 4687,
      "蹭": 4688,
      "蹰": 4689,
      "蹲": 4690,
      "蹴": 4691,
      "蹶": 4692,
      "蹿": 4693,
      "躁": 4694,
      "躅": 4695,
      "躇": 4696,
      "躏": 4697,
      "身": 4698,
      "躬": 4699,
      "躯": 4700,
      "躲": 4701,
      "躺": 4702,
      "车": 4703,
      "轧": 4704,
      "轨": 4705,
      "轩": 4706,
      "转": 4707,
      "轮": 4708,
      "软": 4709,
      "轰": 4710,
      "轱": 4711,
      "轳": 4712,
      "轴": 4713,
      "轶": 4714,
      "轸": 4715,
      "轹": 4716,
      "轻": 4717,
      "载": 4718,
      "轿": 4719,
      "较": 4720,
      "辄": 4721,
      "辅": 4722,
      "辆": 4723,
      "辈": 4724,
      "辉": 4725,
      "辍": 4726,
      "辏": 4727,
      "辐": 4728,
      "辑": 4729,
      "输": 4730,
      "辔": 4731,
      "辕": 4732,
      "辖": 4733,
      "辗": 4734,
      "辘": 4735,
      "辙": 4736,
      "辛": 4737,
      "辜": 4738,
      "辞": 4739,
      "辟": 4740,
      "辣": 4741,
      "辨": 4742,
      "辩": 4743,
      "辰": 4744,
      "辱": 4745,
      "辶": 4746,
      "边": 4747,
      "辽": 4748,
      "达": 4749,
      "迁": 4750,
      "迂": 4751,
      "迄": 4752,
      "迅": 4753,
      "过": 4754,
      "迈": 4755,
      "迎": 4756,
      "运": 4757,
      "近": 4758,
      "返": 4759,
      "还": 4760,
      "这": 4761,
      "进": 4762,
      "远": 4763,
      "违": 4764,
      "连": 4765,
      "迟": 4766,
      "迢": 4767,
      "迤": 4768,
      "迥": 4769,
      "迦": 4770,
      "迨": 4771,
      "迩": 4772,
      "迪": 4773,
      "迫": 4774,
      "迭": 4775,
      "述": 4776,
      "迳": 4777,
      "迷": 4778,
      "迸": 4779,
      "迹": 4780,
      "追": 4781,
      "退": 4782,
      "送": 4783,
      "适": 4784,
      "逃": 4785,
      "逄": 4786,
      "逅": 4787,
      "逆": 4788,
      "选": 4789,
      "逊": 4790,
      "逍": 4791,
      "透": 4792,
      "逐": 4793,
      "逑": 4794,
      "递": 4795,
      "途": 4796,
      "逖": 4797,
      "逗": 4798,
      "通": 4799,
      "逛": 4800,
      "逝": 4801,
      "逞": 4802,
      "速": 4803,
      "造": 4804,
      "逡": 4805,
      "逢": 4806,
      "逦": 4807,
      "逮": 4808,
      "逯": 4809,
      "逵": 4810,
      "逶": 4811,
      "逸": 4812,
      "逻": 4813,
      "逼": 4814,
      "逾": 4815,
      "遁": 4816,
      "遂": 4817,
      "遄": 4818,
      "遇": 4819,
      "遍": 4820,
      "遏": 4821,
      "遐": 4822,
      "遑": 4823,
      "遒": 4824,
      "道": 4825,
      "遗": 4826,
      "遣": 4827,
      "遥": 4828,
      "遨": 4829,
      "遭": 4830,
      "遮": 4831,
      "遵": 4832,
      "遽": 4833,
      "避": 4834,
      "邀": 4835,
      "邂": 4836,
      "邃": 4837,
      "邈": 4838,
      "邑": 4839,
      "邓": 4840,
      "邕": 4841,
      "邢": 4842,
      "那": 4843,
      "邦": 4844,
      "邪": 4845,
      "邬": 4846,
      "邳": 4847,
      "邵": 4848,
      "邸": 4849,
      "邺": 4850,
      "邻": 4851,
      "郁": 4852,
      "郄": 4853,
      "郊": 4854,
      "郎": 4855,
      "郏": 4856,
      "郑": 4857,
      "郗": 4858,
      "郜": 4859,
      "郡": 4860,
      "郢": 4861,
      "郧": 4862,
      "部": 4863,
      "郭": 4864,
      "郯": 4865,
      "郴": 4866,
      "郸": 4867,
      "都": 4868,
      "郾": 4869,
      "鄙": 4870,
      "鄞": 4871,
      "鄢": 4872,
      "鄣": 4873,
      "鄯": 4874,
      "鄹": 4875,
      "酆": 4876,
      "酉": 4877,
      "酊": 4878,
      "酋": 4879,
      "酌": 4880,
      "配": 4881,
      "酒": 4882,
      "酗": 4883,
      "酝": 4884,
      "酡": 4885,
      "酢": 4886,
      "酣": 4887,
      "酥": 4888,
      "酩": 4889,
      "酪": 4890,
      "酬": 4891,
      "酰": 4892,
      "酱": 4893,
      "酵": 4894,
      "酶": 4895,
      "酷": 4896,
      "酸": 4897,
      "酿": 4898,
      "醇": 4899,
      "醉": 4900,
      "醋": 4901,
      "醍": 4902,
      "醐": 4903,
      "醒": 4904,
      "醪": 4905,
      "醭": 4906,
      "醮": 4907,
      "醯": 4908,
      "醴": 4909,
      "醵": 4910,
      "醺": 4911,
      "采": 4912,
      "释": 4913,
      "里": 4914,
      "重": 4915,
      "野": 4916,
      "量": 4917,
      "金": 4918,
      "釜": 4919,
      "鉴": 4920,
      "銮": 4921,
      "鋈": 4922,
      "錾": 4923,
      "鍪": 4924,
      "鎏": 4925,
      "鏊": 4926,
      "鏖": 4927,
      "鐾": 4928,
      "钅": 4929,
      "钇": 4930,
      "针": 4931,
      "钉": 4932,
      "钊": 4933,
      "钋": 4934,
      "钏": 4935,
      "钒": 4936,
      "钓": 4937,
      "钕": 4938,
      "钗": 4939,
      "钙": 4940,
      "钚": 4941,
      "钜": 4942,
      "钝": 4943,
      "钟": 4944,
      "钠": 4945,
      "钡": 4946,
      "钢": 4947,
      "钥": 4948,
      "钦": 4949,
      "钧": 4950,
      "钩": 4951,
      "钪": 4952,
      "钫": 4953,
      "钮": 4954,
      "钱": 4955,
      "钳": 4956,
      "钵": 4957,
      "钺": 4958,
      "钻": 4959,
      "钿": 4960,
      "铀": 4961,
      "铁": 4962,
      "铂": 4963,
      "铃": 4964,
      "铄": 4965,
      "铅": 4966,
      "铉": 4967,
      "铐": 4968,
      "铛": 4969,
      "铜": 4970,
      "铝": 4971,
      "铠": 4972,
      "铢": 4973,
      "铣": 4974,
      "铤": 4975,
      "铬": 4976,
      "铭": 4977,
      "铮": 4978,
      "铰": 4979,
      "铱": 4980,
      "铲": 4981,
      "铳": 4982,
      "银": 4983,
      "铸": 4984,
      "铺": 4985,
      "链": 4986,
      "铿": 4987,
      "销": 4988,
      "锁": 4989,
      "锄": 4990,
      "锅": 4991,
      "锈": 4992,
      "锉": 4993,
      "锊": 4994,
      "锋": 4995,
      "锌": 4996,
      "锍": 4997,
      "锎": 4998,
      "锏": 4999,
      "锐": 5000,
      "锒": 5001,
      "锔": 5002,
      "锕": 5003,
      "锖": 5004,
      "锘": 5005,
      "错": 5006,
      "锛": 5007,
      "锝": 5008,
      "锞": 5009,
      "锟": 5010,
      "锡": 5011,
      "锢": 5012,
      "锤": 5013,
      "锥": 5014,
      "锦": 5015,
      "锨": 5016,
      "锩": 5017,
      "锪": 5018,
      "锬": 5019,
      "键": 5020,
      "锯": 5021,
      "锲": 5022,
      "锵": 5023,
      "锶": 5024,
      "锷": 5025,
      "锸": 5026,
      "锹": 5027,
      "锻": 5028,
      "锼": 5029,
      "镀": 5030,
      "镁": 5031,
      "镂": 5032,
      "镆": 5033,
      "镇": 5034,
      "镌": 5035,
      "镏": 5036,
      "镐": 5037,
      "镒": 5038,
      "镖": 5039,
      "镜": 5040,
      "镞": 5041,
      "镢": 5042,
      "镣": 5043,
      "镫": 5044,
      "镯": 5045,
      "镰": 5046,
      "镶": 5047,
      "长": 5048,
      "门": 5049,
      "闩": 5050,
      "闪": 5051,
      "闫": 5052,
      "闭": 5053,
      "问": 5054,
      "闯": 5055,
      "闰": 5056,
      "闱": 5057,
      "闲": 5058,
      "闳": 5059,
      "间": 5060,
      "闵": 5061,
      "闶": 5062,
      "闷": 5063,
      "闸": 5064,
      "闹": 5065,
      "闺": 5066,
      "闻": 5067,
      "闼": 5068,
      "闾": 5069,
      "阁": 5070,
      "阂": 5071,
      "阃": 5072,
      "阄": 5073,
      "阅": 5074,
      "阆": 5075,
      "阈": 5076,
      "阋": 5077,
      "阌": 5078,
      "阎": 5079,
      "阏": 5080,
      "阐": 5081,
      "阑": 5082,
      "阒": 5083,
      "阔": 5084,
      "阖": 5085,
      "阗": 5086,
      "阙": 5087,
      "阜": 5088,
      "队": 5089,
      "阡": 5090,
      "阱": 5091,
      "防": 5092,
      "阳": 5093,
      "阴": 5094,
      "阵": 5095,
      "阶": 5096,
      "阻": 5097,
      "阽": 5098,
      "阿": 5099,
      "陀": 5100,
      "陂": 5101,
      "附": 5102,
      "际": 5103,
      "陆": 5104,
      "陇": 5105,
      "陈": 5106,
      "陉": 5107,
      "陋": 5108,
      "陌": 5109,
      "降": 5110,
      "限": 5111,
      "陕": 5112,
      "陛": 5113,
      "陟": 5114,
      "陡": 5115,
      "院": 5116,
      "除": 5117,
      "陨": 5118,
      "险": 5119,
      "陪": 5120,
      "陬": 5121,
      "陲": 5122,
      "陵": 5123,
      "陶": 5124,
      "陷": 5125,
      "隅": 5126,
      "隆": 5127,
      "随": 5128,
      "隐": 5129,
      "隔": 5130,
      "隗": 5131,
      "隘": 5132,
      "隙": 5133,
      "障": 5134,
      "隧": 5135,
      "隳": 5136,
      "隶": 5137,
      "隼": 5138,
      "隽": 5139,
      "难": 5140,
      "雀": 5141,
      "雁": 5142,
      "雄": 5143,
      "雅": 5144,
      "集": 5145,
      "雉": 5146,
      "雌": 5147,
      "雍": 5148,
      "雎": 5149,
      "雏": 5150,
      "雒": 5151,
      "雕": 5152,
      "雠": 5153,
      "雨": 5154,
      "雪": 5155,
      "雳": 5156,
      "零": 5157,
      "雷": 5158,
      "雹": 5159,
      "雾": 5160,
      "需": 5161,
      "霁": 5162,
      "霄": 5163,
      "霆": 5164,
      "震": 5165,
      "霈": 5166,
      "霉": 5167,
      "霍": 5168,
      "霎": 5169,
      "霏": 5170,
      "霓": 5171,
      "霖": 5172,
      "霜": 5173,
      "霞": 5174,
      "霭": 5175,
      "霰": 5176,
      "露": 5177,
      "霸": 5178,
      "霹": 5179,
      "霾": 5180,
      "青": 5181,
      "靓": 5182,
      "靖": 5183,
      "静": 5184,
      "非": 5185,
      "靠": 5186,
      "靡": 5187,
      "面": 5188,
      "靥": 5189,
      "革": 5190,
      "靴": 5191,
      "靶": 5192,
      "靼": 5193,
      "鞋": 5194,
      "鞍": 5195,
      "鞑": 5196,
      "鞒": 5197,
      "鞔": 5198,
      "鞘": 5199,
      "鞠": 5200,
      "鞣": 5201,
      "鞫": 5202,
      "鞭": 5203,
      "鞯": 5204,
      "鞲": 5205,
      "鞴": 5206,
      "韦": 5207,
      "韧": 5208,
      "韩": 5209,
      "韪": 5210,
      "韫": 5211,
      "韬": 5212,
      "音": 5213,
      "韵": 5214,
      "韶": 5215,
      "页": 5216,
      "顶": 5217,
      "顷": 5218,
      "项": 5219,
      "顺": 5220,
      "须": 5221,
      "顽": 5222,
      "顾": 5223,
      "顿": 5224,
      "颀": 5225,
      "颁": 5226,
      "颂": 5227,
      "预": 5228,
      "颅": 5229,
      "领": 5230,
      "颇": 5231,
      "颈": 5232,
      "颉": 5233,
      "颊": 5234,
      "颌": 5235,
      "颍": 5236,
      "颐": 5237,
      "频": 5238,
      "颓": 5239,
      "颔": 5240,
      "颖": 5241,
      "颗": 5242,
      "题": 5243,
      "颚": 5244,
      "颜": 5245,
      "额": 5246,
      "颠": 5247,
      "颤": 5248,
      "颦": 5249,
      "颧": 5250,
      "风": 5251,
      "飒": 5252,
      "飓": 5253,
      "飕": 5254,
      "飘": 5255,
      "飙": 5256,
      "飚": 5257,
      "飞": 5258,
      "食": 5259,
      "飧": 5260,
      "飨": 5261,
      "餍": 5262,
      "餐": 5263,
      "餮": 5264,
      "饔": 5265,
      "饕": 5266,
      "饣": 5267,
      "饥": 5268,
      "饧": 5269,
      "饨": 5270,
      "饩": 5271,
      "饪": 5272,
      "饫": 5273,
      "饬": 5274,
      "饭": 5275,
      "饮": 5276,
      "饰": 5277,
      "饱": 5278,
      "饲": 5279,
      "饴": 5280,
      "饵": 5281,
      "饶": 5282,
      "饷": 5283,
      "饺": 5284,
      "饼": 5285,
      "饽": 5286,
      "饿": 5287,
      "馁": 5288,
      "馅": 5289,
      "馆": 5290,
      "馈": 5291,
      "馊": 5292,
      "馋": 5293,
      "馍": 5294,
      "馏": 5295,
      "馐": 5296,
      "馑": 5297,
      "馔": 5298,
      "馕": 5299,
      "首": 5300,
      "馗": 5301,
      "香": 5302,
      "馥": 5303,
      "馨": 5304,
      "马": 5305,
      "驭": 5306,
      "驮": 5307,
      "驯": 5308,
      "驰": 5309,
      "驱": 5310,
      "驳": 5311,
      "驴": 5312,
      "驶": 5313,
      "驷": 5314,
      "驸": 5315,
      "驹": 5316,
      "驻": 5317,
      "驼": 5318,
      "驽": 5319,
      "驾": 5320,
      "驿": 5321,
      "骀": 5322,
      "骁": 5323,
      "骂": 5324,
      "骄": 5325,
      "骆": 5326,
      "骇": 5327,
      "骈": 5328,
      "骋": 5329,
      "验": 5330,
      "骏": 5331,
      "骐": 5332,
      "骑": 5333,
      "骖": 5334,
      "骗": 5335,
      "骚": 5336,
      "骛": 5337,
      "骜": 5338,
      "骞": 5339,
      "骤": 5340,
      "骥": 5341,
      "骧": 5342,
      "骨": 5343,
      "骶": 5344,
      "骷": 5345,
      "骸": 5346,
      "骼": 5347,
      "髀": 5348,
      "髁": 5349,
      "髅": 5350,
      "髌": 5351,
      "髓": 5352,
      "高": 5353,
      "髟": 5354,
      "髦": 5355,
      "髯": 5356,
      "髻": 5357,
      "鬃": 5358,
      "鬓": 5359,
      "鬟": 5360,
      "鬣": 5361,
      "鬯": 5362,
      "鬼": 5363,
      "魁": 5364,
      "魂": 5365,
      "魃": 5366,
      "魄": 5367,
      "魅": 5368,
      "魇": 5369,
      "魈": 5370,
      "魉": 5371,
      "魍": 5372,
      "魏": 5373,
      "魑": 5374,
      "魔": 5375,
      "鱼": 5376,
      "鱿": 5377,
      "鲁": 5378,
      "鲂": 5379,
      "鲅": 5380,
      "鲆": 5381,
      "鲇": 5382,
      "鲈": 5383,
      "鲋": 5384,
      "鲍": 5385,
      "鲎": 5386,
      "鲜": 5387,
      "鲠": 5388,
      "鲤": 5389,
      "鲨": 5390,
      "鲫": 5391,
      "鲲": 5392,
      "鲸": 5393,
      "鳃": 5394,
      "鳄": 5395,
      "鳌": 5396,
      "鳍": 5397,
      "鳎": 5398,
      "鳐": 5399,
      "鳕": 5400,
      "鳖": 5401,
      "鳞": 5402,
      "鸟": 5403,
      "鸠": 5404,
      "鸡": 5405,
      "鸢": 5406,
      "鸣": 5407,
      "鸥": 5408,
      "鸦": 5409,
      "鸩": 5410,
      "鸪": 5411,
      "鸫": 5412,
      "鸬": 5413,
      "鸭": 5414,
      "鸯": 5415,
      "鸱": 5416,
      "鸲": 5417,
      "鸳": 5418,
      "鸵": 5419,
      "鸷": 5420,
      "鸸": 5421,
      "鸺": 5422,
      "鸽": 5423,
      "鸾": 5424,
      "鸿": 5425,
      "鹁": 5426,
      "鹄": 5427,
      "鹅": 5428,
      "鹆": 5429,
      "鹉": 5430,
      "鹊": 5431,
      "鹌": 5432,
      "鹎": 5433,
      "鹏": 5434,
      "鹕": 5435,
      "鹗": 5436,
      "鹘": 5437,
      "鹛": 5438,
      "鹜": 5439,
      "鹞": 5440,
      "鹣": 5441,
      "鹤": 5442,
      "鹦": 5443,
      "鹨": 5444,
      "鹩": 5445,
      "鹪": 5446,
      "鹫": 5447,
      "鹬": 5448,
      "鹰": 5449,
      "鹾": 5450,
      "鹿": 5451,
      "麈": 5452,
      "麋": 5453,
      "麒": 5454,
      "麓": 5455,
      "麝": 5456,
      "麟": 5457,
      "麦": 5458,
      "麻": 5459,
      "麾": 5460,
      "黄": 5461,
      "黍": 5462,
      "黎": 5463,
      "黏": 5464,
      "黑": 5465,
      "黔": 5466,
      "默": 5467,
      "黛": 5468,
      "黝": 5469,
      "黠": 5470,
      "黪": 5471,
      "黯": 5472,
      "鼋": 5473,
      "鼍": 5474,
      "鼎": 5475,
      "鼐": 5476,
      "鼓": 5477,
      "鼗": 5478,
      "鼙": 5479,
      "鼠": 5480,
      "鼻": 5481,
      "齐": 5482,
      "齑": 5483,
      "齿": 5484,
      "龀": 5485,
      "龃": 5486,
      "龄": 5487,
      "龅": 5488,
      "龆": 5489,
      "龇": 5490,
      "龉": 5491,
      "龊": 5492,
      "龋": 5493,
      "龌": 5494,
      "龙": 5495,
      "龚": 5496,
      "龛": 5497,
      "龟": 5498,
      "！": 5499,
      "＃": 5500,
      "（": 5501,
      "）": 5502,
      "，": 5503,
      "１": 5504,
      "２": 5505,
      "３": 5506,
      "４": 5507,
      "５": 5508,
      "６": 5509,
      "７": 5510,
      "８": 5511,
      "：": 5512,
      "；": 5513,
      "＜": 5514,
      "＝": 5515,
      "＞": 5516,
      "？": 5517,
      "＠": 5518,
      "Ａ": 5519,
      "Ｄ": 5520,
      "Ｅ": 5521,
      "Ｈ": 5522,
      "Ｉ": 5523,
      "Ｊ": 5524,
      "Ｋ": 5525,
      "Ｎ": 5526,
      "Ｏ": 5527,
      "Ｐ": 5528,
      "Ｑ": 5529,
      "Ｓ": 5530,
      "Ｔ": 5531,
      "Ｕ": 5532,
      "Ｖ": 5533,
      "ｊ": 5534,
      "￡": 5535,
      "君怀": 5536,
      "刘君怀": 5537,
      "！”": 5538,
      "：“": 5539,
      "，“": 5540,
      "气息": 5541,
      "天地": 5542,
      "空间": 5543,
      "。”": 5544,
      "便是": 5545,
      "存在": 5546,
      "没有": 5547,
      "只是": 5548,
      "仙帝": 5549,
      "之力": 5550,
      "却是": 5551,
      "自己": 5552,
      "也是": 5553,
      "其中": 5554,
      "他们": 5555,
      "能量": 5556,
      "就是": 5557,
      "时间": 5558,
      "可以": 5559,
      "已经": 5560,
      "修士": 5561,
      "如此": 5562,
      "？”": 5563,
      "自然": 5564,
      "一个": 5565,
      "法则": 5566,
      "虚空": 5567,
      "势力": 5568,
      "到了": 5569,
      "他的": 5570,
      "出来": 5571,
      "巨大": 5572,
      "之人": 5573,
      "修炼": 5574,
      "此时": 5575,
      "出现": 5576,
      "刘君怀的": 5577,
      "体内": 5578,
      "不是": 5579,
      "说道": 5580,
      "能够": 5581,
      "我们": 5582,
      "万象": 5583,
      "有一": 5584,
      "可是": 5585,
      "了一": 5586,
      "对于": 5587,
      "也不": 5588,
      "的一": 5589,
      "还是": 5590,
      "笑道": 5591,
      "这一": 5592,
      "境界": 5593,
      "瞬间": 5594,
      "众人": 5595,
      "之处": 5596,
      "仙人": 5597,
      "起来": 5598,
      "需要": 5599,
      "进入": 5600,
      "会有": 5601,
      "这些": 5602,
      "这种": 5603,
      "那一": 5604,
      "因为": 5605,
      "仙界": 5606,
      "即使": 5607,
      "而且": 5608,
      "世界": 5609,
      "无数": 5610,
      "虽然": 5611,
      "出一": 5612,
      "之中": 5613,
      "修为": 5614,
      "自身": 5615,
      "之后": 5616,
      "联盟": 5617,
      "此等": 5618,
      "感知": 5619,
      "之间": 5620,
      "只有": 5621,
      "下来": 5622,
      "之前": 5623,
      "之下": 5624,
      "心中": 5625,
      "这般": 5626,
      "之时": 5627,
      "知道": 5628,
      "思彤": 5629,
      "当中": 5630,
      "血盟": 5631,
      "弑血盟": 5632,
      "万象宗": 5633,
      "力量": 5634,
      "不能": 5635,
      "这里": 5636,
      "二人": 5637,
      "阵法": 5638,
      "无尽": 5639,
      "有些": 5640,
      "天道": 5641,
      "随着": 5642,
      "整个": 5643,
      "什么": 5644,
      "一股": 5645,
      "已是": 5646,
      "一般": 5647,
      "实力": 5648,
      "不过": 5649,
      "提升": 5650,
      "识海": 5651,
      "一种": 5652,
      "之地": 5653,
      "管家": 5654,
      "之气": 5655,
      "炼制": 5656,
      "现在": 5657,
      "可能": 5658,
      "一道": 5659,
      "不断": 5660,
      "老祖": 5661,
      "莫思彤": 5662,
      "门派": 5663,
      "后期": 5664,
      "不会": 5665,
      "仿佛": 5666,
      "身上": 5667,
      "禁制": 5668,
      "还有": 5669,
      "状态": 5670,
      "出了": 5671,
      "所以": 5672,
      "感觉": 5673,
      "一片": 5674,
      "时候": 5675,
      "人的": 5676,
      "一丝": 5677,
      "里的": 5678,
      "具有": 5679,
      "老管家": 5680,
      "但是": 5681,
      "强大": 5682,
      "有所": 5683,
      "修真": 5684,
      "使得": 5685,
      "之物": 5686,
      "灵魂": 5687,
      "感悟": 5688,
      "这个": 5689,
      "不得": 5690,
      "混沌": 5691,
      "而出": 5692,
      "显现": 5693,
      "身体": 5694,
      "神界": 5695,
      "才是": 5696,
      "光芒": 5697,
      "神通": 5698,
      "有了": 5699,
      "恐怖": 5700,
      "若是": 5701,
      "不知": 5702,
      "流转": 5703,
      "几十": 5704,
      "许多": 5705,
      "之事": 5706,
      "之上": 5707,
      "仙王": 5708,
      "这样": 5709,
      "你的": 5710,
      "中的": 5711,
      "元神": 5712,
      "再次": 5713,
      "应该": 5714,
      "前辈": 5715,
      "自己的": 5716,
      "真正": 5717,
      "星天": 5718,
      "所有": 5719,
      "不可": 5720,
      "一切": 5721,
      "所在": 5722,
      "血脉": 5723,
      "过来": 5724,
      "飞升": 5725,
      "在一": 5726,
      "金色": 5727,
      "昆吾": 5728,
      "每一": 5729,
      "后的": 5730,
      "乃是": 5731,
      "有着": 5732,
      "吞噬": 5733,
      "修真界": 5734,
      "此地": 5735,
      "身形": 5736,
      "练呈": 5737,
      "眼神": 5738,
      "相关": 5739,
      "炼化": 5740,
      "点头": 5741,
      "身份": 5742,
      "进阶": 5743,
      "之内": 5744,
      "同样": 5745,
      "意识": 5746,
      "更是": 5747,
      "一阵": 5748,
      "完全": 5749,
      "直接": 5750,
      "具体": 5751,
      "几人": 5752,
      "这是": 5753,
      "想到": 5754,
      "仙师": 5755,
      "多多": 5756,
      "你们": 5757,
      "消失": 5758,
      "五行": 5759,
      "实际": 5760,
      "之势": 5761,
      "口中": 5762,
      "万年": 5763,
      "显然": 5764,
      "阗殛": 5765,
      "范围": 5766,
      "手中": 5767,
      "汉疆": 5768,
      "探识": 5769,
      "灵气": 5770,
      "阗殛老祖": 5771,
      "威势": 5772,
      "真元": 5773,
      "意念": 5774,
      "开始": 5775,
      "手段": 5776,
      "不见": 5777,
      "道道": 5778,
      "化为": 5779,
      "愈加": 5780,
      "波动": 5781,
      "之意": 5782,
      "甚至": 5783,
      "昆吾掸": 5784,
      "那种": 5785,
      "火焰": 5786,
      "渐渐": 5787,
      "一声": 5788,
      "神念": 5789,
      "浓郁": 5790,
      "威压": 5791,
      "三人": 5792,
      "十几": 5793,
      "只要": 5794,
      "在他": 5795,
      "看来": 5796,
      "一缕": 5797,
      "很是": 5798,
      "的是": 5799,
      "气血": 5800,
      "真龙": 5801,
      "生机": 5802,
      "那位": 5803,
      "化作": 5804,
      "能力": 5805,
      "本源": 5806,
      "仙尊": 5807,
      "向着": 5808,
      "雷电": 5809,
      "发出": 5810,
      "周身": 5811,
      "而来": 5812,
      "里面": 5813,
      "更多": 5814,
      "大的": 5815,
      "丝毫": 5816,
      "来到": 5817,
      "此人": 5818,
      "形成": 5819,
      "弟子": 5820,
      "一方": 5821,
      "阴阳": 5822,
      "不同": 5823,
      "已然": 5824,
      "而已": 5825,
      "前来": 5826,
      "原因": 5827,
      "依旧": 5828,
      "阿九": 5829,
      "星天议": 5830,
      "未有": 5831,
      "犹如": 5832,
      "见到": 5833,
      "那些": 5834,
      "星天议会": 5835,
      "怎么": 5836,
      "都是": 5837,
      "之外": 5838,
      "这位": 5839,
      "气势": 5840,
      "乐圣": 5841,
      "兄弟": 5842,
      "一旦": 5843,
      "位置": 5844,
      "传承": 5845,
      "如同": 5846,
      "两人": 5847,
      "任何": 5848,
      "部分": 5849,
      "得到": 5850,
      "乐圣仙师": 5851,
      "变化": 5852,
      "圣光": 5853,
      "开来": 5854,
      "的存在": 5855,
      "天地间": 5856,
      "问题": 5857,
      "令他": 5858,
      "方式": 5859,
      "圣光社": 5860,
      "傀儡": 5861,
      "果然": 5862,
      "我等": 5863,
      "笼罩": 5864,
      "地面": 5865,
      "如何": 5866,
      "其他": 5867,
      "一人": 5868,
      "圣人": 5869,
      "为了": 5870,
      "毕竟": 5871,
      "立时": 5872,
      "距离": 5873,
      "使用": 5874,
      "一下": 5875,
      "我的": 5876,
      "过程": 5877,
      "几乎": 5878,
      "一处": 5879,
      "那处": 5880,
      "今日": 5881,
      "生出": 5882,
      "时辰": 5883,
      "楼主": 5884,
      "刚刚": 5885,
      "身影": 5886,
      "它们": 5887,
      "倒是": 5888,
      "声音": 5889,
      "魔族": 5890,
      "均是": 5891,
      "发现": 5892,
      "神兽": 5893,
      "竟然": 5894,
      "竟是": 5895,
      "感受": 5896,
      "极致": 5897,
      "过去": 5898,
      "这才": 5899,
      "此处": 5900,
      "万物": 5901,
      "情形": 5902,
      "无形": 5903,
      "来的": 5904,
      "简单": 5905,
      "不到": 5906,
      "明显": 5907,
      "神龙": 5908,
      "蛇族": 5909,
      "万里": 5910,
      "丹药": 5911,
      "通道": 5912,
      "也有": 5913,
      "玄羽": 5914,
      "而起": 5915,
      "玄羽旗": 5916,
      "的刘君怀": 5917,
      "沈多多": 5918,
      "同时": 5919,
      "半圣": 5920,
      "无比": 5921,
      "加持": 5922,
      "望着": 5923,
      "实在": 5924,
      "身后": 5925,
      "一样": 5926,
      "老人": 5927,
      "生命": 5928,
      "符文": 5929,
      "也在": 5930,
      "作用": 5931,
      "那里": 5932,
      "之感": 5933,
      "此种": 5934,
      "就此": 5935,
      "诸般": 5936,
      "属于": 5937,
      "功法": 5938,
      "修士联盟": 5939,
      "刻意": 5940,
      "一些": 5941,
      "无限": 5942,
      "隐秘": 5943,
      "规则": 5944,
      "真元力": 5945,
      "中期": 5946,
      "大乘": 5947,
      "既然": 5948,
      "一次": 5949,
      "像是": 5950,
      "剧烈": 5951,
      "漫天": 5952,
      "其间": 5953,
      "迅速": 5954,
      "运转": 5955,
      "一位": 5956,
      "长老": 5957,
      "带着": 5958,
      "此间": 5959,
      "事情": 5960,
      "这么": 5961,
      "无法": 5962,
      "真实": 5963,
      "始终": 5964,
      "相当": 5965,
      "空中": 5966,
      "元神之力": 5967,
      "一族": 5968,
      "机会": 5969,
      "升腾": 5970,
      "方才": 5971,
      "相比": 5972,
      "在刘君怀": 5973,
      "多少": 5974,
      "下的": 5975,
      "极大": 5976,
      "深处": 5977,
      "还要": 5978,
      "五方": 5979,
      "可见": 5980,
      "镜像": 5981,
      "才能": 5982,
      "杀戮": 5983,
      "产生": 5984,
      "传说": 5985,
      "两位": 5986,
      "凝实": 5987,
      "意志": 5988,
      "上古": 5989,
      "日后": 5990,
      "也就": 5991,
      "初期": 5992,
      "完整": 5993,
      "参与": 5994,
      "四处": 5995,
      "瞬移": 5996,
      "它的": 5997,
      "隐藏": 5998,
      "根本": 5999,
      "也只有": 6000,
      "上的": 6001,
      "早已": 6002,
      "几位": 6003,
      "叫做": 6004,
      "心内": 6005,
      "眼前": 6006,
      "天罡": 6007,
      "重天": 6008,
      "闪烁": 6009,
      "属性": 6010,
      "实际上": 6011,
      "练呈如": 6012,
      "虚空里": 6013,
      "极为": 6014,
      "至少": 6015,
      "向了": 6016,
      "出现在": 6017,
      "狂暴": 6018,
      "秘境": 6019,
      "前往": 6020,
      "眼中": 6021,
      "传来": 6022,
      "全身": 6023,
      "丝丝": 6024,
      "一名": 6025,
      "生成": 6026,
      "大道": 6027,
      "全部": 6028,
      "加入": 6029,
      "金丹": 6030,
      "不要": 6031,
      "本身": 6032,
      "目的": 6033,
      "纷纷": 6034,
      "强悍": 6035,
      "消息": 6036,
      "心神": 6037,
      "攻击": 6038,
      "各种": 6039,
      "倏然": 6040,
      "五方仙帝": 6041,
      "天罡殿": 6042,
      "此事": 6043,
      "离开": 6044,
      "爆裂": 6045,
      "的人": 6046,
      "道纹": 6047,
      "个时辰": 6048,
      "影响": 6049,
      "紫色": 6050,
      "发生": 6051,
      "小世界": 6052,
      "元婴": 6053,
      "看到": 6054,
      "一旁": 6055,
      "法宝": 6056,
      "呵呵": 6057,
      "的大": 6058,
      "在这": 6059,
      "过了": 6060,
      "面前": 6061,
      "未曾": 6062,
      "没想到": 6063,
      "元气": 6064,
      "仅是": 6065,
      "或是": 6066,
      "突兀": 6067,
      "唯一": 6068,
      "引起": 6069,
      "散修": 6070,
      "最终": 6071,
      "又是": 6072,
      "镜像世界": 6073,
      "小子": 6074,
      "毁灭": 6075,
      "隐隐": 6076,
      "并不": 6077,
      "更加": 6078,
      "仙帝联盟": 6079,
      "出的": 6080,
      "一番": 6081,
      "老人家": 6082,
      "心下": 6083,
      "楚家": 6084,
      "盟主": 6085,
      "妖族": 6086,
      "进化": 6087,
      "之色": 6088,
      "更有": 6089,
      "实在是": 6090,
      "东西": 6091,
      "四周": 6092,
      "渡劫": 6093,
      "丹田": 6094,
      "布置": 6095,
      "最为": 6096,
      "此类": 6097,
      "环境": 6098,
      "刘君怀笑道": 6099,
      "疯狂": 6100,
      "那名": 6101,
      "接下来": 6102,
      "散发": 6103,
      "普通": 6104,
      "皆是": 6105,
      "那人": 6106,
      "家族": 6107,
      "异常": 6108,
      "效果": 6109,
      "问道": 6110,
      "而是": 6111,
      "到来": 6112,
      "妖兽": 6113,
      "不已": 6114,
      "哪里": 6115,
      "回到": 6116,
      "当然": 6117,
      "只能": 6118,
      "大人": 6119,
      "安排": 6120,
      "宗主": 6121,
      "涌动": 6122,
      "速度": 6123,
      "通过": 6124,
      "关注": 6125,
      "仙元": 6126,
      "妖皇": 6127,
      "这一次": 6128,
      "令刘君怀": 6129,
      "伏羲": 6130,
      "心里": 6131,
      "清晰": 6132,
      "这次": 6133,
      "精血": 6134,
      "凤凰": 6135,
      "他们的": 6136,
      "极度": 6137,
      "接着": 6138,
      "而去": 6139,
      "再有": 6140,
      "天际": 6141,
      "庞大": 6142,
      "诸位": 6143,
      "冲击": 6144,
      "之举": 6145,
      "下去": 6146,
      "练呈觉": 6147,
      "开口": 6148,
      "便有": 6149,
      "关键": 6150,
      "变得": 6151,
      "诡异": 6152,
      "也没有": 6153,
      "达到": 6154,
      "锋芒": 6155,
      "模样": 6156,
      "关系": 6157,
      "神皇": 6158,
      "远远": 6159,
      "一步": 6160,
      "忽然": 6161,
      "神奇": 6162,
      "混沌空间": 6163,
      "以为": 6164,
      "惊喜": 6165,
      "一直": 6166,
      "浩荡": 6167,
      "周围": 6168,
      "蕴含": 6169,
      "真阳": 6170,
      "金光": 6171,
      "神器": 6172,
      "一点": 6173,
      "百丈": 6174,
      "半神": 6175,
      "摇头": 6176,
      "领悟": 6177,
      "门派联盟": 6178,
      "出去": 6179,
      "类似": 6180,
      "精神": 6181,
      "一抹": 6182,
      "似乎": 6183,
      "宇宙": 6184,
      "小的": 6185,
      "就在": 6186,
      "无论": 6187,
      "第1": 6188,
      "经脉": 6189,
      "成功": 6190,
      "非常": 6191,
      "利用": 6192,
      "轮回": 6193,
      "法则气息": 6194,
      "青色": 6195,
      "不如": 6196,
      "开启": 6197,
      "顿时": 6198,
      "之极": 6199,
      "与他": 6200,
      "也会": 6201,
      "就会": 6202,
      "正是": 6203,
      "点点头": 6204,
      "之际": 6205,
      "由此": 6206,
      "可怕": 6207,
      "渡劫期": 6208,
      "好在": 6209,
      "帮助": 6210,
      "天海": 6211,
      "弥漫": 6212,
      "声响": 6213,
      "颤动": 6214,
      "天劫": 6215,
      "之体": 6216,
      "终于": 6217,
      "天海府": 6218,
      "感到": 6219,
      "蔓延": 6220,
      "认为": 6221,
      "半点": 6222,
      "面的": 6223,
      "之火": 6224,
      "浩瀚": 6225,
      "也许": 6226,
      "显化": 6227,
      "足以": 6228,
      "十分": 6229,
      "旋即": 6230,
      "老者": 6231,
      "惊骇": 6232,
      "二十": 6233,
      "又有": 6234,
      "处在": 6235,
      "肯定": 6236,
      "即为": 6237,
      "掌控": 6238,
      "起了": 6239,
      "来越": 6240,
      "相互": 6241,
      "自是": 6242,
      "越来越": 6243,
      "轰然": 6244,
      "闪电": 6245,
      "心境": 6246,
      "滔天": 6247,
      "身躯": 6248,
      "行动": 6249,
      "魔气": 6250,
      "令人": 6251,
      "阵阵": 6252,
      "感觉到": 6253,
      "令得": 6254,
      "而至": 6255,
      "铺展": 6256,
      "天机": 6257,
      "待得": 6258,
      "暗中": 6259,
      "也要": 6260,
      "光华": 6261,
      "天师": 6262,
      "烈焰": 6263,
      "黑色": 6264,
      "战斗": 6265,
      "阶散修": 6266,
      "个人": 6267,
      "传送": 6268,
      "才会": 6269,
      "面色": 6270,
      "此时的": 6271,
      "控制": 6272,
      "连忙": 6273,
      "了解": 6274,
      "是不是": 6275,
      "这时候": 6276,
      "三位": 6277,
      "西域": 6278,
      "主要": 6279,
      "冲天": 6280,
      "千年": 6281,
      "历练": 6282,
      "获得": 6283,
      "与你": 6284,
      "彻底": 6285,
      "此次": 6286,
      "远古": 6287,
      "骤然": 6288,
      "法则之力": 6289,
      "吸收": 6290,
      "建立": 6291,
      "才可": 6292,
      "日里": 6293,
      "讲述": 6294,
      "那般": 6295,
      "与刘君怀": 6296,
      "大陆": 6297,
      "接触": 6298,
      "……": 6299,
      "不敢": 6300,
      "遮掩": 6301,
      "雷霆": 6302,
      "便会": 6303,
      "震撼": 6304,
      "况且": 6305,
      "嗜血": 6306,
      "猛然": 6307,
      "由于": 6308,
      "神秘": 6309,
      "这等": 6310,
      "威力": 6311,
      "炼丹": 6312,
      "重大": 6313,
      "三星": 6314,
      "方圆": 6315,
      "所能": 6316,
      "理解": 6317,
      "红色": 6318,
      "两界": 6319,
      "松印": 6320,
      "脸上": 6321,
      "来到了": 6322,
      "不然": 6323,
      "第一": 6324,
      "发展": 6325,
      "万象楼": 6326,
      "滚滚": 6327,
      "逐渐": 6328,
      "先生": 6329,
      "的确": 6330,
      "自行": 6331,
      "充斥": 6332,
      "有人": 6333,
      "材料": 6334,
      "气流": 6335,
      "降临": 6336,
      "会长": 6337,
      "夫人": 6338,
      "成为": 6339,
      "方势力": 6340,
      "此刻": 6341,
      "现下": 6342,
      "的话": 6343,
      "看着": 6344,
      "神树": 6345,
      "肉身": 6346,
      "返回": 6347,
      "笑着": 6348,
      "领域": 6349,
      "感受到": 6350,
      "取出": 6351,
      "进行": 6352,
      "作为": 6353,
      "居然": 6354,
      "现场": 6355,
      "纹路": 6356,
      "在一起": 6357,
      "身边": 6358,
      "下一": 6359,
      "不由": 6360,
      "徒然": 6361,
      "涟漪": 6362,
      "面对": 6363,
      "带来": 6364,
      "扭曲": 6365,
      "行为": 6366,
      "转瞬": 6367,
      "轻易": 6368,
      "霎那": 6369,
      "玄奥": 6370,
      "破碎": 6371,
      "哈哈": 6372,
      "禁锢": 6373,
      "般地": 6374,
      "刘君怀所": 6375,
      "天识": 6376,
      "算是": 6377,
      "小宝": 6378,
      "迅疾": 6379,
      "两个": 6380,
      "就可以": 6381,
      "心理": 6382,
      "猜测": 6383,
      "修炼者": 6384,
      "半空": 6385,
      "满了": 6386,
      "一定": 6387,
      "重要": 6388,
      "一副": 6389,
      "不住": 6390,
      "有可能": 6391,
      "护体": 6392,
      "精纯": 6393,
      "压迫": 6394,
      "要比": 6395,
      "出来的": 6396,
      "旁人": 6397,
      "来讲": 6398,
      "灵石": 6399,
      "绽放": 6400,
      "贯穿": 6401,
      "入了": 6402,
      "向刘君怀": 6403,
      "大宝": 6404,
      "不停": 6405,
      "因此": 6406,
      "缓缓": 6407,
      "一一": 6408,
      "为何": 6409,
      "神情": 6410,
      "远处": 6411,
      "反应": 6412,
      "惊天": 6413,
      "筑基": 6414,
      "身前": 6415,
      "安全": 6416,
      "程度": 6417,
      "转换": 6418,
      "及时": 6419,
      "清楚": 6420,
      "直到": 6421,
      "未来": 6422,
      "东蝇": 6423,
      "则是": 6424,
      "不少": 6425,
      "恢复": 6426,
      "智慧": 6427,
      "涂钦": 6428,
      "特殊": 6429,
      "生得": 6430,
      "雷珠": 6431,
      "二位": 6432,
      "以后": 6433,
      "另一": 6434,
      "回来": 6435,
      "层面": 6436,
      "的时间": 6437,
      "兴奋": 6438,
      "意义": 6439,
      "顷刻": 6440,
      "伏羲仙王": 6441,
      "不在": 6442,
      "于是": 6443,
      "缭绕": 6444,
      "已被": 6445,
      "接近": 6446,
      "明白": 6447,
      "百年": 6448,
      "即可": 6449,
      "强烈": 6450,
      "突然": 6451,
      "闪过": 6452,
      "天地自然": 6453,
      "天地元气": 6454,
      "三十": 6455,
      "信息": 6456,
      "决定": 6457,
      "向笛": 6458,
      "慢慢": 6459,
      "知晓": 6460,
      "那么": 6461,
      "刘君怀也": 6462,
      "虚无": 6463,
      "边际": 6464,
      "乐道": 6465,
      "掌握": 6466,
      "时空": 6467,
      "之道": 6468,
      "如果": 6469,
      "微微": 6470,
      "听闻": 6471,
      "深深": 6472,
      "席卷": 6473,
      "暂时": 6474,
      "超越": 6475,
      "巨大的": 6476,
      "仅仅": 6477,
      "再行": 6478,
      "某种": 6479,
      "释放": 6480,
      "更为": 6481,
      "等同": 6482,
      "解决": 6483,
      "不再": 6484,
      "圆球": 6485,
      "将之": 6486,
      "战场": 6487,
      "觉得": 6488,
      "在这里": 6489,
      "天然": 6490,
      "的道": 6491,
      "有一丝": 6492,
      "嗜血三星": 6493,
      "不及": 6494,
      "家伙": 6495,
      "联系": 6496,
      "爆发": 6497,
      "上空": 6498,
      "就要": 6499,
      "流光": 6500,
      "之音": 6501,
      "之所以": 6502,
      "入口": 6503,
      "单纯": 6504,
      "的能量": 6505,
      "不知道": 6506,
      "大妖": 6507,
      "浦和": 6508,
      "笑意": 6509,
      "不出": 6510,
      "段时间": 6511,
      "生存": 6512,
      "时日": 6513,
      "缝隙": 6514,
      "其内": 6515,
      "小心": 6516,
      "眼睛": 6517,
      "去了": 6518,
      "相信": 6519,
      "以及": 6520,
      "的修士": 6521,
      "讯息": 6522,
      "烈焰酒": 6523,
      "之心": 6524,
      "快速": 6525,
      "这些人": 6526,
      "一条": 6527,
      "一枚": 6528,
      "方和": 6529,
      "空气": 6530,
      "引领": 6531,
      "遗址": 6532,
      "强者": 6533,
      "中人": 6534,
      "事物": 6535,
      "依然": 6536,
      "探寻": 6537,
      "浑身": 6538,
      "漩涡": 6539,
      "表情": 6540,
      "龙王": 6541,
      "向笛先生": 6542,
      "做出": 6543,
      "准备": 6544,
      "只会": 6545,
      "嘴角": 6546,
      "打算": 6547,
      "早就": 6548,
      "地方": 6549,
      "拍卖": 6550,
      "乱流": 6551,
      "域主": 6552,
      "山脉": 6553,
      "最大": 6554,
      "炼器": 6555,
      "还在": 6556,
      "九级": 6557,
      "仙阵": 6558,
      "凝聚": 6559,
      "密切": 6560,
      "片刻": 6561,
      "足足": 6562,
      "一脸": 6563,
      "无穷": 6564,
      "木方和": 6565,
      "解释": 6566,
      "转动": 6567,
      "难以": 6568,
      "在仙界": 6569,
      "改变": 6570,
      "处于": 6571,
      "已有": 6572,
      "突破": 6573,
      "越是": 6574,
      "最后": 6575,
      "磅礴": 6576,
      "也不会": 6577,
      "他所": 6578,
      "珍贵": 6579,
      "灵魂之力": 6580,
      "境地": 6581,
      "并非": 6582,
      "拥有": 6583,
      "神龙一族": 6584,
      "几日": 6585,
      "统领": 6586,
      "那是": 6587,
      "宝物": 6588,
      "的空间": 6589,
      "一时间": 6590,
      "储物": 6591,
      "光线": 6592,
      "大小": 6593,
      "太多": 6594,
      "时刻": 6595,
      "极其": 6596,
      "方面": 6597,
      "血色": 6598,
      "雾气": 6599,
      "在虚空": 6600,
      "弑神": 6601,
      "起身": 6602,
      "大宝小宝": 6603,
      "弑神枪": 6604,
      "继续": 6605,
      "至于": 6606,
      "般的": 6607,
      "一团": 6608,
      "某一": 6609,
      "身旁": 6610,
      "但也": 6611,
      "各处": 6612,
      "年轻": 6613,
      "至高": 6614,
      "一眼": 6615,
      "修复": 6616,
      "沉浸": 6617,
      "百里": 6618,
      "也就是": 6619,
      "今后": 6620,
      "翻滚": 6621,
      "上前": 6622,
      "凝重": 6623,
      "撕裂": 6624,
      "针对": 6625,
      "好了": 6626,
      "心底": 6627,
      "是否": 6628,
      "星天大陆": 6629,
      "商议": 6630,
      "天眼": 6631,
      "好像": 6632,
      "定然": 6633,
      "收获": 6634,
      "汩汩": 6635,
      "缓慢": 6636,
      "了几": 6637,
      "交流": 6638,
      "正常": 6639,
      "激荡": 6640,
      "造化": 6641,
      "三界": 6642,
      "现在的": 6643,
      "边际中": 6644,
      "声道": 6645,
      "大地": 6646,
      "溢出": 6647,
      "神色": 6648,
      "有何": 6649,
      "沈家": 6650,
      "碧麟": 6651,
      "从而": 6652,
      "惊异": 6653,
      "了许多": 6654,
      "仅有": 6655,
      "漫身": 6656,
      "形式": 6657,
      "敖五": 6658,
      "早有": 6659,
      "确定": 6660,
      "数万年": 6661,
      "一事": 6662,
      "从此": 6663,
      "城主": 6664,
      "煞气": 6665,
      "良久": 6666,
      "先天": 6667,
      "天下": 6668,
      "彰显": 6669,
      "汇聚": 6670,
      "留在": 6671,
      "道义": 6672,
      "难得": 6673,
      "刘宗主": 6674,
      "天空": 6675,
      "字符": 6676,
      "无上": 6677,
      "泛延": 6678,
      "第二": 6679,
      "化神": 6680,
      "震荡": 6681,
      "完美": 6682,
      "技法": 6683,
      "等待": 6684,
      "空间法则": 6685,
      "弑血盟的": 6686,
      "东蝇人": 6687,
      "不必": 6688,
      "宜人": 6689,
      "心念": 6690,
      "修士的": 6691,
      "希望": 6692,
      "根据": 6693,
      "神灵": 6694,
      "轨迹": 6695,
      "还真": 6696,
      "显露": 6697,
      "相对": 6698,
      "所言": 6699,
      "重新": 6700,
      "雷炎": 6701,
      "星辰": 6702,
      "至极": 6703,
      "如今": 6704,
      "龙息": 6705,
      "修行": 6706,
      "光影": 6707,
      "说罢": 6708,
      "不会有": 6709,
      "其人": 6710,
      "实质": 6711,
      "防御": 6712,
      "识海内": 6713,
      "一同": 6714,
      "不时": 6715,
      "听到": 6716,
      "恐惧": 6717,
      "方可": 6718,
      "无所": 6719,
      "等级": 6720,
      "衍生": 6721,
      "契合": 6722,
      "守护": 6723,
      "掌门": 6724,
      "方向": 6725,
      "人员": 6726,
      "危险": 6727,
      "呼啸": 6728,
      "咎宜人": 6729,
      "怕是": 6730,
      "情况": 6731,
      "刘君怀说道": 6732,
      "进入了": 6733,
      "雷炎龙王": 6734,
      "主人": 6735,
      "擎天": 6736,
      "内心": 6737,
      "的修炼": 6738,
      "魔性": 6739,
      "碧麟妖皇": 6740,
      "交代": 6741,
      "合体": 6742,
      "家人": 6743,
      "组织": 6744,
      "血液": 6745,
      "认知": 6746,
      "其中的": 6747,
      "消失不见": 6748,
      "众多": 6749,
      "却不": 6750,
      "气浪": 6751,
      "耗费": 6752,
      "融合": 6753,
      "储物戒": 6754,
      "与我": 6755,
      "无边": 6756,
      "立人": 6757,
      "强大的": 6758,
      "大部分": 6759,
      "容易": 6760,
      "察觉": 6761,
      "此言": 6762,
      "都在": 6763,
      "压制": 6764,
      "心生": 6765,
      "正式": 6766,
      "等人": 6767,
      "颤抖": 6768,
      "包裹": 6769,
      "密密": 6770,
      "闭关": 6771,
      "与那": 6772,
      "天残": 6773,
      "将他": 6774,
      "气机": 6775,
      "神域": 6776,
      "老朽": 6777,
      "转眼": 6778,
      "天残岛": 6779,
      "不堪": 6780,
      "以上": 6781,
      "经过": 6782,
      "足够": 6783,
      "大多": 6784,
      "山谷": 6785,
      "生死": 6786,
      "散发着": 6787,
      "在了": 6788,
      "域府": 6789,
      "怀疑": 6790,
      "灵根": 6791,
      "计划": 6792,
      "金仙": 6793,
      "意识到": 6794,
      "天眼通": 6795,
      "一起": 6796,
      "此物": 6797,
      "刘君怀却是": 6798,
      "一口": 6799,
      "也好": 6800,
      "也只是": 6801,
      "太过": 6802,
      "想着": 6803,
      "曾经": 6804,
      "法师": 6805,
      "脸色": 6806,
      "使得他": 6807,
      "密集": 6808,
      "想要": 6809,
      "的气息": 6810,
      "自于": 6811,
      "门下": 6812,
      "众女": 6813,
      "晶石": 6814,
      "说不得": 6815,
      "感知到": 6816,
      "地下": 6817,
      "幻化": 6818,
      "神人": 6819,
      "风暴": 6820,
      "人族": 6821,
      "千机": 6822,
      "寓意": 6823,
      "演化": 6824,
      "那等": 6825,
      "立人天师": 6826,
      "各个": 6827,
      "本来": 6828,
      "赫然": 6829,
      "道理": 6830,
      "可惜": 6831,
      "必要": 6832,
      "某些": 6833,
      "精髓": 6834,
      "一只": 6835,
      "亦是": 6836,
      "在场": 6837,
      "玄妙": 6838,
      "虚影": 6839,
      "规律": 6840,
      "探识力": 6841,
      "山洞": 6842,
      "看看": 6843,
      "破解": 6844,
      "之声": 6845,
      "保证": 6846,
      "君昊": 6847,
      "天地之": 6848,
      "在那": 6849,
      "天意": 6850,
      "摆手": 6851,
      "法术": 6852,
      "泛起": 6853,
      "绿色": 6854,
      "隆隆": 6855,
      "四人": 6856,
      "恍若": 6857,
      "记忆": 6858,
      "这就是": 6859,
      "人等": 6860,
      "强行": 6861,
      "淡淡": 6862,
      "父亲": 6863,
      "给你": 6864,
      "应该是": 6865,
      "一众": 6866,
      "一时": 6867,
      "两种": 6868,
      "很多": 6869,
      "必须": 6870,
      "除了": 6871,
      "寻找": 6872,
      "而下": 6873,
      "我们的": 6874,
      "不禁": 6875,
      "交织": 6876,
      "依靠": 6877,
      "倾覆": 6878,
      "心态": 6879,
      "还未": 6880,
      "几个": 6881,
      "却也": 6882,
      "涌荡": 6883,
      "深邃": 6884,
      "理会": 6885,
      "这才是": 6886,
      "钟离": 6887,
      "颇为": 6888,
      "高阶": 6889,
      "任由": 6890,
      "大笑": 6891,
      "悄然": 6892,
      "或许": 6893,
      "的天": 6894,
      "纹理": 6895,
      "进来": 6896,
      "道者": 6897,
      "陷入": 6898,
      "之一": 6899,
      "人类": 6900,
      "地说道": 6901,
      "奥义": 6902,
      "旋转": 6903,
      "本就": 6904,
      "目光": 6905,
      "血肉": 6906,
      "混沌之气": 6907,
      "两名": 6908,
      "再是": 6909,
      "心岛": 6910,
      "收取": 6911,
      "肆意": 6912,
      "等同于": 6913,
      "完成": 6914,
      "当做": 6915,
      "机缘": 6916,
      "游走": 6917,
      "行事": 6918,
      "为一": 6919,
      "会儿": 6920,
      "即是": 6921,
      "打击": 6922,
      "探入": 6923,
      "迸射": 6924,
      "的一声": 6925,
      "克银": 6926,
      "景象": 6927,
      "望向": 6928,
      "极光": 6929,
      "正在": 6930,
      "汲取": 6931,
      "细细": 6932,
      "随之": 6933,
      "一层": 6934,
      "不了": 6935,
      "单独": 6936,
      "各自": 6937,
      "心头": 6938,
      "这也是": 6939,
      "功德": 6940,
      "留下": 6941,
      "聚集": 6942,
      "这股": 6943,
      "骨骼": 6944,
      "下界": 6945,
      "师傅": 6946,
      "想来": 6947,
      "斩杀": 6948,
      "绝尘": 6949,
      "传送阵": 6950,
      "不绝": 6951,
      "哥哥": 6952,
      "实乃": 6953,
      "方克银": 6954,
      "本心": 6955,
      "烙印": 6956,
      "考虑": 6957,
      "今日里": 6958,
      "之为": 6959,
      "分身": 6960,
      "晚辈": 6961,
      "有数": 6962,
      "渐趋": 6963,
      "着刘君怀": 6964,
      "隐晦": 6965,
      "面上": 6966,
      "君昊仙帝": 6967,
      "不定": 6968,
      "原本": 6969,
      "异象": 6970,
      "放心": 6971,
      "整体": 6972,
      "极深": 6973,
      "灵性": 6974,
      "炼心岛": 6975,
      "爷爷": 6976,
      "刘君怀便": 6977,
      "上去": 6978,
      "兴趣": 6979,
      "而成": 6980,
      "仙帝后期": 6981,
      "顷刻间": 6982,
      "到的": 6983,
      "巨响": 6984,
      "意外": 6985,
      "气运": 6986,
      "在地": 6987,
      "独立": 6988,
      "级别": 6989,
      "铺天": 6990,
      "万象宗的": 6991,
      "亦为": 6992,
      "将那": 6993,
      "急速": 6994,
      "意境": 6995,
      "晕荡": 6996,
      "炳文": 6997,
      "盖地": 6998,
      "转身": 6999,
      "九天": 7000,
      "结果": 7001,
      "罢了": 7002,
      "艰难": 7003,
      "没有人": 7004,
      "之间的": 7005,
      "天机门": 7006,
      "绝尘宫": 7007,
      "与之": 7008,
      "凝结": 7009,
      "十二": 7010,
      "安邦": 7011,
      "心法": 7012,
      "我想": 7013,
      "敌人": 7014,
      "暗自": 7015,
      "大乘期": 7016,
      "不仅": 7017,
      "亲自": 7018,
      "表现": 7019,
      "裂纹": 7020,
      "不多": 7021,
      "与天地": 7022,
      "之念": 7023,
      "交谈": 7024,
      "在虚空里": 7025,
      "奇怪": 7026,
      "浮现": 7027,
      "蜕变": 7028,
      "大乘后期": 7029,
      "钟离元": 7030,
      "寻常": 7031,
      "沈炳文": 7032,
      "肖擎天": 7033,
      "不待": 7034,
      "出手": 7035,
      "另有": 7036,
      "沟通": 7037,
      "目标": 7038,
      "秽气": 7039,
      "给我": 7040,
      "自如": 7041,
      "松印小世界": 7042,
      "并没有": 7043,
      "广阔": 7044,
      "心门": 7045,
      "打开": 7046,
      "一行": 7047,
      "交易": 7048,
      "办法": 7049,
      "辟心门": 7050,
      "黑洞": 7051,
      "也不过": 7052,
      "范围内": 7053,
      "不由得": 7054,
      "启动": 7055,
      "担心": 7056,
      "末法": 7057,
      "相助": 7058,
      "给他": 7059,
      "花影": 7060,
      "刘君怀道": 7061,
      "之法": 7062,
      "各式": 7063,
      "师兄": 7064,
      "形态": 7065,
      "息时间": 7066,
      "注意": 7067,
      "瓶颈": 7068,
      "隐约": 7069,
      "每一次": 7070,
      "不止": 7071,
      "元阳": 7072,
      "战事": 7073,
      "时的": 7074,
      "之术": 7075,
      "了起来": 7076,
      "仙酒": 7077,
      "出了一": 7078,
      "响起": 7079,
      "在此": 7080,
      "心情": 7081,
      "星象": 7082,
      "诠济": 7083,
      "交由": 7084,
      "在修真界": 7085,
      "岩浆": 7086,
      "更深": 7087,
      "飞艇": 7088,
      "空间领域": 7089,
      "炼丹师": 7090,
      "加以": 7091,
      "杀戮气息": 7092,
      "铺天盖地": 7093,
      "诠济法师": 7094,
      "世间": 7095,
      "中年": 7096,
      "前去": 7097,
      "动着": 7098,
      "着实": 7099,
      "缕缕": 7100,
      "首次": 7101,
      "五色": 7102,
      "出声": 7103,
      "取出了": 7104,
      "有的": 7105,
      "而过": 7106,
      "衍化": 7107,
      "得很": 7108,
      "璀璨": 7109,
      "痕迹": 7110,
      "短暂": 7111,
      "神识": 7112,
      "阵法盘": 7113,
      "不足": 7114,
      "加上": 7115,
      "包括": 7116,
      "升起": 7117,
      "呈现": 7118,
      "融汇": 7119,
      "隐身": 7120,
      "刘君怀体内": 7121,
      "他体内": 7122,
      "大罗": 7123,
      "有如此": 7124,
      "百多": 7125,
      "左右": 7126,
      "无人": 7127,
      "见识": 7128,
      "说明": 7129,
      "遮天": 7130,
      "雷电之力": 7131,
      "好处": 7132,
      "意味": 7133,
      "秘密": 7134,
      "言道": 7135,
      "还有一": 7136,
      "重重": 7137,
      "住了": 7138,
      "刻画": 7139,
      "基础": 7140,
      "暴虐": 7141,
      "秘术": 7142,
      "过于": 7143,
      "能量波动": 7144,
      "不断地": 7145,
      "一件": 7146,
      "天命": 7147,
      "或者": 7148,
      "眼下": 7149,
      "石作": 7150,
      "而不": 7151,
      "五行之力": 7152,
      "仙气": 7153,
      "切割": 7154,
      "悟会": 7155,
      "探知": 7156,
      "法力": 7157,
      "真的": 7158,
      "被他": 7159,
      "跟随": 7160,
      "也不能": 7161,
      "无数道": 7162,
      "主动": 7163,
      "厚重": 7164,
      "敖O": 7165,
      "漆黑": 7166,
      "裂缝": 7167,
      "万仞": 7168,
      "任务": 7169,
      "体质": 7170,
      "其实": 7171,
      "大势": 7172,
      "拉扯": 7173,
      "这就": 7174,
      "便是了": 7175,
      "冲天而起": 7176,
      "神灵兽": 7177,
      "丝缕": 7178,
      "压力": 7179,
      "就像": 7180,
      "山门": 7181,
      "早在": 7182,
      "服用": 7183,
      "随即": 7184,
      "出一股": 7185,
      "地位": 7186,
      "大劫": 7187,
      "数十": 7188,
      "紧张": 7189,
      "轰鸣": 7190,
      "道蕴": 7191,
      "邪恶": 7192,
      "骇然": 7193,
      "在其中": 7194,
      "尽数": 7195,
      "的力量": 7196,
      "首先": 7197,
      "骆花影": 7198,
      "鲜血": 7199,
      "真阳之火": 7200,
      "九劫": 7201,
      "原地": 7202,
      "浩大": 7203,
      "目前": 7204,
      "那个": 7205,
      "上了": 7206,
      "上天": 7207,
      "千里": 7208,
      "声中": 7209,
      "才可以": 7210,
      "看护": 7211,
      "裹着": 7212,
      "遇到": 7213,
      "一日": 7214,
      "上品": 7215,
      "努力": 7216,
      "好似": 7217,
      "孩子": 7218,
      "强势": 7219,
      "怎样": 7220,
      "才会有": 7221,
      "第三": 7222,
      "的一切": 7223,
      "一经": 7224,
      "仔细": 7225,
      "修得": 7226,
      "的巨大": 7227,
      "逆天": 7228,
      "那一方": 7229,
      "大罗仙": 7230,
      "上来": 7231,
      "午风": 7232,
      "好奇": 7233,
      "尝试": 7234,
      "成就": 7235,
      "毫无": 7236,
      "生生": 7237,
      "的事情": 7238,
      "进一步": 7239,
      "逍驹": 7240,
      "刘君怀心中": 7241,
      "便可": 7242,
      "其上": 7243,
      "变幻": 7244,
      "叶序": 7245,
      "师伯": 7246,
      "房叶序": 7247,
      "找到": 7248,
      "最高": 7249,
      "紊乱": 7250,
      "刘君怀在": 7251,
      "元神珠": 7252,
      "两界通道": 7253,
      "充斥着": 7254,
      "万万": 7255,
      "刹那": 7256,
      "坊市": 7257,
      "很快": 7258,
      "我与": 7259,
      "所得": 7260,
      "是在": 7261,
      "秩序": 7262,
      "自有": 7263,
      "便被": 7264,
      "凭空": 7265,
      "她们": 7266,
      "核心": 7267,
      "齐齐": 7268,
      "何等": 7269,
      "光幕": 7270,
      "均有": 7271,
      "大会": 7272,
      "束缚": 7273,
      "留存": 7274,
      "雷神": 7275,
      "刘君怀才": 7276,
      "一向": 7277,
      "佛光": 7278,
      "头颅": 7279,
      "成长": 7280,
      "我也": 7281,
      "扩散": 7282,
      "眼里": 7283,
      "空间内": 7284,
      "心经": 7285,
      "氤氲": 7286,
      "消弭": 7287,
      "看似": 7288,
      "站立": 7289,
      "说着": 7290,
      "千机谷": 7291,
      "了出来": 7292,
      "六翼": 7293,
      "卫道者": 7294,
      "尽快": 7295,
      "屏蔽": 7296,
      "巅峰": 7297,
      "承受": 7298,
      "气旋": 7299,
      "自那": 7300,
      "资源": 7301,
      "这处": 7302,
      "显现出来": 7303,
      "真正的": 7304,
      "眼神里": 7305,
      "人心": 7306,
      "光罩": 7307,
      "关于": 7308,
      "天威": 7309,
      "奇异": 7310,
      "应劫": 7311,
      "未知": 7312,
      "气雾": 7313,
      "满身": 7314,
      "血雾": 7315,
      "仙丹": 7316,
      "令牌": 7317,
      "冰冷": 7318,
      "凄厉": 7319,
      "圣器": 7320,
      "添加": 7321,
      "的小": 7322,
      "语气": 7323,
      "传说中": 7324,
      "传讯": 7325,
      "剑意": 7326,
      "召集": 7327,
      "天仙": 7328,
      "数百": 7329,
      "深刻": 7330,
      "都有": 7331,
      "半个时辰": 7332,
      "所讲": 7333,
      "无声": 7334,
      "武万仞": 7335,
      "立即": 7336,
      "集中": 7337,
      "星天议会的": 7338,
      "下一刻": 7339,
      "一滴": 7340,
      "充满了": 7341,
      "力行": 7342,
      "品阶": 7343,
      "好的": 7344,
      "展现": 7345,
      "所为": 7346,
      "狠狠": 7347,
      "神帝": 7348,
      "迷惑": 7349,
      "道德": 7350,
      "金鹏": 7351,
      "空间之力": 7352,
      "……”": 7353,
      "上面": 7354,
      "凌墨": 7355,
      "就有": 7356,
      "散落": 7357,
      "每一个": 7358,
      "甚多": 7359,
      "还没有": 7360,
      "就是了": 7361,
      "那一刻": 7362,
      "仙神": 7363,
      "凌厉": 7364,
      "千万里": 7365,
      "手指": 7366,
      "此行": 7367,
      "浓浓": 7368,
      "经历": 7369,
      "这许多": 7370,
      "刘君怀与": 7371,
      "两者": 7372,
      "修习": 7373,
      "收起": 7374,
      "深入": 7375,
      "的灵气": 7376,
      "耀汉": 7377,
      "莫要": 7378,
      "路山": 7379,
      "都会": 7380,
      "化神期": 7381,
      "了一个": 7382,
      "并无": 7383,
      "惊奇": 7384,
      "解读": 7385,
      "跟着": 7386,
      "骨骸": 7387,
      "不可能": 7388,
      "佛教": 7389,
      "反而": 7390,
      "咱们": 7391,
      "地宝": 7392,
      "复杂": 7393,
      "天雷珠": 7394,
      "您老": 7395,
      "条件": 7396,
      "般存在": 7397,
      "谨慎": 7398,
      "单是": 7399,
      "回道": 7400,
      "地底": 7401,
      "有种": 7402,
      "材地宝": 7403,
      "真晶": 7404,
      "记得": 7405,
      "造成": 7406,
      "所有人": 7407,
      "一把": 7408,
      "不觉": 7409,
      "中心": 7410,
      "他也": 7411,
      "便将": 7412,
      "停滞": 7413,
      "共同": 7414,
      "可不": 7415,
      "名仙人": 7416,
      "气氛": 7417,
      "甚为": 7418,
      "神智": 7419,
      "穿透": 7420,
      "翰林": 7421,
      "那时候": 7422,
      "存在着": 7423,
      "相当于": 7424,
      "接着道": 7425,
      "三个": 7426,
      "力的": 7427,
      "宛如": 7428,
      "尤其": 7429,
      "房间": 7430,
      "然后": 7431,
      "穿越": 7432,
      "继而": 7433,
      "拍卖会": 7434,
      "六翼金鹏": 7435,
      "一动": 7436,
      "万逍驹": 7437,
      "两道": 7438,
      "吴耀汉": 7439,
      "外面": 7440,
      "手下": 7441,
      "未见": 7442,
      "的望着": 7443,
      "盘膝": 7444,
      "还需要": 7445,
      "道家": 7446,
      "你这": 7447,
      "抵御": 7448,
      "望向了": 7449,
      "模糊": 7450,
      "的时候": 7451,
      "秋柔": 7452,
      "虽不": 7453,
      "万丈": 7454,
      "他人": 7455,
      "即便是": 7456,
      "恍如": 7457,
      "想法": 7458,
      "物质": 7459,
      "眨眼": 7460,
      "低下": 7461,
      "大哥": 7462,
      "并且": 7463,
      "建筑": 7464,
      "往往": 7465,
      "明晰": 7466,
      "样子": 7467,
      "炷香": 7468,
      "神兵": 7469,
      "那股": 7470,
      "音波": 7471,
      "一座": 7472,
      "不需要": 7473,
      "充满": 7474,
      "叹道": 7475,
      "在于": 7476,
      "性命": 7477,
      "数量": 7478,
      "浑厚": 7479,
      "清凉": 7480,
      "结合": 7481,
      "蕴意": 7482,
      "配合": 7483,
      "提前": 7484,
      "犹若": 7485,
      "血腥": 7486,
      "让他": 7487,
      "队伍": 7488,
      "有一种": 7489,
      "几十年": 7490,
      "毁灭气息": 7491,
      "一来": 7492,
      "令他们": 7493,
      "内部": 7494,
      "王路山": 7495,
      "的实力": 7496,
      "禀书": 7497,
      "刘君怀这才": 7498,
      "世界之力": 7499,
      "出一道": 7500,
      "两只": 7501,
      "人物": 7502,
      "众生": 7503,
      "光柱": 7504,
      "区域": 7505,
      "受到": 7506,
      "耀眼": 7507,
      "这便是": 7508,
      "高级": 7509,
      "如此的": 7510,
      "眼神中": 7511,
      "蕴含着": 7512,
      "九阶散修": 7513,
      "光晕": 7514,
      "公开": 7515,
      "凛然": 7516,
      "回到了": 7517,
      "提醒": 7518,
      "无可": 7519,
      "无量": 7520,
      "死亡": 7521,
      "适时": 7522,
      "都被": 7523,
      "阴森": 7524,
      "青城": 7525,
      "君怀哥哥": 7526,
      "几十丈": 7527,
      "初始": 7528,
      "古战场": 7529,
      "可不是": 7530,
      "屏障": 7531,
      "差距": 7532,
      "循环": 7533,
      "明日": 7534,
      "白色": 7535,
      "诸多": 7536,
      "连接": 7537,
      "间断": 7538,
      "青子": 7539,
      "不清": 7540,
      "之余": 7541,
      "光亮": 7542,
      "得知": 7543,
      "感激": 7544,
      "望者": 7545,
      "随时": 7546,
      "麻麻": 7547,
      "石作青城": 7548,
      "九劫天雷珠": 7549,
      "他在": 7550,
      "古韵": 7551,
      "对他": 7552,
      "很大": 7553,
      "必然": 7554,
      "息壤": 7555,
      "沸腾": 7556,
      "激发": 7557,
      "踏入": 7558,
      "过得": 7559,
      "进去": 7560,
      "金丹期": 7561,
      "不好": 7562,
      "中品": 7563,
      "何况": 7564,
      "处的": 7565,
      "显示": 7566,
      "有此": 7567,
      "来至": 7568,
      "适合": 7569,
      "院落": 7570,
      "元婴期": 7571,
      "密密麻麻": 7572,
      "传出": 7573,
      "依仗": 7574,
      "十三": 7575,
      "恍然": 7576,
      "提供": 7577,
      "的同时": 7578,
      "瞬息": 7579,
      "穿梭": 7580,
      "结束": 7581,
      "至理": 7582,
      "猛然间": 7583,
      "应劫者": 7584,
      "你是": 7585,
      "剑气": 7586,
      "增加": 7587,
      "引导": 7588,
      "我就": 7589,
      "方位": 7590,
      "沈一": 7591,
      "渊释": 7592,
      "纵横": 7593,
      "达成": 7594,
      "这片": 7595,
      "透明": 7596,
      "金色光芒": 7597,
      "一笑": 7598,
      "不相": 7599,
      "五彩": 7600,
      "他与": 7601,
      "内中": 7602,
      "另外": 7603,
      "圣龙": 7604,
      "建议": 7605,
      "性质": 7606,
      "瞬时": 7607,
      "表面": 7608,
      "转化": 7609,
      "一道道": 7610,
      "呵呵笑道": 7611,
      "浦和仙帝": 7612,
      "沈一桓": 7613,
      "渊释天": 7614,
      "仙器": 7615,
      "低声": 7616,
      "剧痛": 7617,
      "威胁": 7618,
      "守望者": 7619,
      "家的": 7620,
      "平日里": 7621,
      "感应": 7622,
      "所谓": 7623,
      "神级": 7624,
      "自由": 7625,
      "血光": 7626,
      "角落": 7627,
      "证道": 7628,
      "还书": 7629,
      "迹象": 7630,
      "只是这": 7631,
      "松印秘境": 7632,
      "传音": 7633,
      "在刘君怀的": 7634,
      "大手": 7635,
      "夹裹着": 7636,
      "她的": 7637,
      "极寒": 7638,
      "武器": 7639,
      "涉及": 7640,
      "爆炸": 7641,
      "生灵": 7642,
      "神光": 7643,
      "覆盖": 7644,
      "这可是": 7645,
      "锐气": 7646,
      "体内的": 7647,
      "凤凰隅": 7648,
      "的确是": 7649,
      "密切相关": 7650,
      "不用": 7651,
      "兵器": 7652,
      "极高": 7653,
      "现身": 7654,
      "的高": 7655,
      "相还书": 7656,
      "算得": 7657,
      "系列": 7658,
      "那就": 7659,
      "重生": 7660,
      "进入其中": 7661,
      "一块": 7662,
      "两手": 7663,
      "也需要": 7664,
      "何种": 7665,
      "危机": 7666,
      "失去": 7667,
      "小家伙": 7668,
      "庞然": 7669,
      "引来": 7670,
      "洞穴": 7671,
      "不断的": 7672,
      "超越了": 7673,
      "了些": 7674,
      "呼吸": 7675,
      "推演": 7676,
      "期待": 7677,
      "详细": 7678,
      "风云": 7679,
      "周边": 7680,
      "平静": 7681,
      "找寻": 7682,
      "施展": 7683,
      "理念": 7684,
      "长青子": 7685,
      "闻听": 7686,
      "阻止": 7687,
      "飞速": 7688,
      "元阳神树": 7689,
      "不间断": 7690,
      "吴碧": 7691,
      "流淌": 7692,
      "疼痛": 7693,
      "轻轻": 7694,
      "闪亮": 7695,
      "难道": 7696,
      "刘君怀点点头": 7697,
      "了一丝": 7698,
      "阴阳丹": 7699,
      "吴碧妮": 7700,
      "也被": 7701,
      "可曾": 7702,
      "手里": 7703,
      "极端": 7704,
      "这里的": 7705,
      "这样的": 7706,
      "却不料": 7707,
      "不安": 7708,
      "八级": 7709,
      "几欲": 7710,
      "印记": 7711,
      "在空中": 7712,
      "岁月": 7713,
      "幻化为": 7714,
      "惊叫": 7715,
      "想必": 7716,
      "没入": 7717,
      "霹雳": 7718,
      "那一缕": 7719,
      "一会儿": 7720,
      "伴随着": 7721,
      "保持": 7722,
      "十里": 7723,
      "寻得": 7724,
      "展开": 7725,
      "师门": 7726,
      "恐怕": 7727,
      "是一种": 7728,
      "比较": 7729,
      "淬炼": 7730,
      "独特": 7731,
      "精华": 7732,
      "而开": 7733,
      "金属": 7734,
      "频频": 7735,
      "在一旁": 7736,
      "真阳心经": 7737,
      "上下": 7738,
      "之威": 7739,
      "乾坤": 7740,
      "天和": 7741,
      "局势": 7742,
      "强横": 7743,
      "我看": 7744,
      "文家": 7745,
      "暴露": 7746,
      "点点": 7747,
      "神魂": 7748,
      "类的": 7749,
      "而生": 7750,
      "藏宝": 7751,
      "要求": 7752,
      "连续": 7753,
      "那道": 7754,
      "这里面": 7755,
      "三界真阳心经": 7756,
      "三大": 7757,
      "之日": 7758,
      "全面": 7759,
      "几息": 7760,
      "合一": 7761,
      "响彻": 7762,
      "在汉疆": 7763,
      "将其": 7764,
      "尽皆": 7765,
      "无奈": 7766,
      "朝着": 7767,
      "白光": 7768,
      "秉持": 7769,
      "稳定": 7770,
      "精石": 7771,
      "背后": 7772,
      "赤焰": 7773,
      "轰隆隆": 7774,
      "选择": 7775,
      "身上的": 7776,
      "价值": 7777,
      "听说": 7778,
      "堪堪": 7779,
      "层层": 7780,
      "的出现": 7781,
      "着的": 7782,
      "练乐": 7783,
      "近乎": 7784,
      "没有一丝": 7785,
      "虚空乱流": 7786,
      "九天息壤": 7787,
      "命理": 7788,
      "命运": 7789,
      "在我": 7790,
      "多的": 7791,
      "师叔": 7792,
      "此番": 7793,
      "泰河": 7794,
      "湮灭": 7795,
      "火热": 7796,
      "玉石": 7797,
      "转化为": 7798,
      "这一点": 7799,
      "无尽的": 7800,
      "血脉传承": 7801,
      "飞升仙界": 7802,
      "类似于": 7803,
      "作响": 7804,
      "做到": 7805,
      "切实": 7806,
      "剑芒": 7807,
      "多久": 7808,
      "天莲": 7809,
      "意的": 7810,
      "晦涩": 7811,
      "殿主": 7812,
      "物件": 7813,
      "犀利": 7814,
      "羽尘": 7815,
      "表明": 7816,
      "陡然": 7817,
      "霎那间": 7818,
      "不曾": 7819,
      "了刘君怀": 7820,
      "声势": 7821,
      "大家": 7822,
      "射出": 7823,
      "巨龙": 7824,
      "我所": 7825,
      "的感觉": 7826,
      "的地方": 7827,
      "精光": 7828,
      "这两": 7829,
      "限制": 7830,
      "有一缕": 7831,
      "之路": 7832,
      "仅为": 7833,
      "你就": 7834,
      "吸引": 7835,
      "回去": 7836,
      "延伸": 7837,
      "想象": 7838,
      "接受": 7839,
      "明知": 7840,
      "是因为": 7841,
      "获取": 7842,
      "贯通": 7843,
      "趋势": 7844,
      "躲避": 7845,
      "都要": 7846,
      "首要": 7847,
      "意念转动": 7848,
      "之辈": 7849,
      "交错": 7850,
      "仙域": 7851,
      "你所": 7852,
      "即将": 7853,
      "在他的": 7854,
      "密织": 7855,
      "当时": 7856,
      "成员": 7857,
      "承嗣": 7858,
      "拱手": 7859,
      "汹涌": 7860,
      "浮宫": 7861,
      "燕浮宫": 7862,
      "生长": 7863,
      "的最": 7864,
      "紧接着": 7865,
      "者的": 7866,
      "脚下": 7867,
      "舒缓": 7868,
      "获知": 7869,
      "融入": 7870,
      "那时": 7871,
      "间的": 7872,
      "的一种": 7873,
      "昆吾会长": 7874,
      "万千": 7875,
      "人群": 7876,
      "信任": 7877,
      "前的": 7878,
      "回答": 7879,
      "封印": 7880,
      "极品": 7881,
      "此举": 7882,
      "绿意": 7883,
      "而入": 7884,
      "阶位": 7885,
      "面目": 7886,
      "识海里": 7887,
      "向着刘君怀": 7888,
      "城主府": 7889,
      "一年": 7890,
      "也未": 7891,
      "他心中": 7892,
      "会被": 7893,
      "区别": 7894,
      "因而": 7895,
      "头顶": 7896,
      "手中的": 7897,
      "来了": 7898,
      "称呼": 7899,
      "莫名": 7900,
      "走向": 7901,
      "遍及": 7902,
      "修真界的": 7903,
      "开口道": 7904,
      "下了": 7905,
      "也不是": 7906,
      "事关": 7907,
      "代表": 7908,
      "传递": 7909,
      "召唤": 7910,
      "在你": 7911,
      "大能": 7912,
      "对方": 7913,
      "岂不是": 7914,
      "心火": 7915,
      "才有": 7916,
      "是一": 7917,
      "正如": 7918,
      "泛生": 7919,
      "索性": 7920,
      "便是那": 7921,
      "存在的": 7922,
      "更多的": 7923,
      "安邦仙帝": 7924,
      "一战": 7925,
      "千万": 7926,
      "原来": 7927,
      "并未": 7928,
      "撞击": 7929,
      "无敌": 7930,
      "犹豫": 7931,
      "刘君怀心下": 7932,
      "天地之力": 7933,
      "此时的刘君怀": 7934,
      "恐怖的": 7935,
      "精神力": 7936,
      "释放出": 7937,
      "一生": 7938,
      "刀芒": 7939,
      "悬浮": 7940,
      "玄天": 7941,
      "言语": 7942,
      "道友": 7943,
      "遥远": 7944,
      "阳州": 7945,
      "雷劫": 7946,
      "高空": 7947,
      "自身境界": 7948,
      "先天真": 7949,
      "一之气": 7950,
      "全力": 7951,
      "几句": 7952,
      "分别": 7953,
      "双手": 7954,
      "可有": 7955,
      "嘴巴": 7956,
      "天象": 7957,
      "平都": 7958,
      "得到了": 7959,
      "施出": 7960,
      "最是": 7961,
      "着他": 7962,
      "隐匿": 7963,
      "鬼眼": 7964,
      "魂魄": 7965,
      "刘君怀连忙": 7966,
      "小子我": 7967,
      "体坞": 7968,
      "何泰河": 7969,
      "告知": 7970,
      "张口": 7971,
      "杀意": 7972,
      "波纹": 7973,
      "练盟主": 7974,
      "被刘君怀": 7975,
      "先天真一之气": 7976,
      "平都城": 7977,
      "一空": 7978,
      "为之": 7979,
      "伸手": 7980,
      "四溢": 7981,
      "威凛": 7982,
      "崭新": 7983,
      "意见": 7984,
      "玉简": 7985,
      "的不": 7986,
      "的那": 7987,
      "联合": 7988,
      "荡漾": 7989,
      "陨体坞": 7990,
      "顺利": 7991,
      "鹤堡": 7992,
      "刘君怀没有": 7993,
      "心思": 7994,
      "无疑": 7995,
      "早早": 7996,
      "灵智": 7997,
      "的东西": 7998,
      "确实": 7999,
      "要知道": 8000,
      "观察": 8001,
      "详尽": 8002,
      "驳杂": 8003,
      "了一下": 8004,
      "呵呵乐道": 8005,
      "乌云": 8006,
      "争斗": 8007,
      "借助": 8008,
      "划过": 8009,
      "天材地宝": 8010,
      "天鹤堡": 8011,
      "封王": 8012,
      "小友": 8013,
      "已在": 8014,
      "挥手": 8015,
      "提出": 8016,
      "濮阳": 8017,
      "灵珠": 8018,
      "皆为": 8019,
      "称之为": 8020,
      "等候": 8021,
      "色的": 8022,
      "讲出": 8023,
      "辅助": 8024,
      "运行": 8025,
      "陷阱": 8026,
      "鼓胀": 8027,
      "法则感悟": 8028,
      "紫色圆球": 8029,
      "转眼间": 8030,
      "之嫌": 8031,
      "先行": 8032,
      "到底": 8033,
      "动地": 8034,
      "地心": 8035,
      "基本": 8036,
      "手掌": 8037,
      "有不": 8038,
      "汉郾": 8039,
      "源源": 8040,
      "痛苦": 8041,
      "皆因": 8042,
      "短短": 8043,
      "破裂": 8044,
      "罡风": 8045,
      "肉眼": 8046,
      "脱离": 8047,
      "远超": 8048,
      "默默": 8049,
      "刘君怀将": 8050,
      "出一丝": 8051,
      "无限接近": 8052,
      "练乐人": 8053,
      "汉郾城": 8054,
      "从未": 8055,
      "仙兽": 8056,
      "会在": 8057,
      "估计": 8058,
      "再加上": 8059,
      "天赋": 8060,
      "尸体": 8061,
      "念想": 8062,
      "担忧": 8063,
      "摇摇头": 8064,
      "放弃": 8065,
      "方便": 8066,
      "母亲": 8067,
      "神元": 8068,
      "让人": 8069,
      "足有": 8070,
      "体内仙元": 8071,
      "丝丝缕缕": 8072,
      "天然阵法": 8073,
      "一亮": 8074,
      "下品": 8075,
      "与此": 8076,
      "再也": 8077,
      "半空中": 8078,
      "很有可能": 8079,
      "得多": 8080,
      "成了": 8081,
      "教化": 8082,
      "日月": 8083,
      "星核": 8084,
      "现象": 8085,
      "紧紧": 8086,
      "身居": 8087,
      "较之": 8088,
      "逃离": 8089,
      "长的": 8090,
      "自然气息": 8091,
      "地面上": 8092,
      "元婴后期": 8093,
      "一身": 8094,
      "久久": 8095,
      "之语": 8096,
      "勾连": 8097,
      "去往": 8098,
      "均为": 8099,
      "家主": 8100,
      "层空间": 8101,
      "年纪": 8102,
      "恍惚": 8103,
      "感到了": 8104,
      "效用": 8105,
      "散发出": 8106,
      "有什么": 8107,
      "本质": 8108,
      "溢着": 8109,
      "的修为": 8110,
      "破坏": 8111,
      "高深": 8112,
      "这一切": 8113,
      "秽气丸": 8114,
      "一击": 8115,
      "不容": 8116,
      "于此": 8117,
      "凝练": 8118,
      "勉强": 8119,
      "堂主": 8120,
      "当空": 8121,
      "持续": 8122,
      "由来": 8123,
      "种种": 8124,
      "秘地": 8125,
      "练羽尘": 8126,
      "自然是": 8127,
      "使得刘君怀": 8128,
      "一场": 8129,
      "到处": 8130,
      "势态": 8131,
      "哪怕": 8132,
      "导致": 8133,
      "并不是": 8134,
      "战车": 8135,
      "抵达": 8136,
      "楷瑞": 8137,
      "激活": 8138,
      "玉牌": 8139,
      "秉性": 8140,
      "赤红": 8141,
      "露出": 8142,
      "魔道": 8143,
      "出现了": 8144,
      "不大": 8145,
      "九变": 8146,
      "你我": 8147,
      "冥冥": 8148,
      "剑丸": 8149,
      "双眼": 8150,
      "妙法": 8151,
      "姐妹": 8152,
      "孕育": 8153,
      "清明": 8154,
      "澎湃": 8155,
      "细微": 8156,
      "认可": 8157,
      "说不定": 8158,
      "迷离": 8159,
      "长辈": 8160,
      "阿紫": 8161,
      "震动": 8162,
      "君怀兄弟": 8163,
      "过程中": 8164,
      "一线": 8165,
      "不上": 8166,
      "不管": 8167,
      "两人的": 8168,
      "介绍": 8169,
      "关联": 8170,
      "半炷香": 8171,
      "在身": 8172,
      "威慑": 8173,
      "师弟": 8174,
      "开辟": 8175,
      "极限": 8176,
      "梵阳": 8177,
      "消耗": 8178,
      "的很": 8179,
      "的提升": 8180,
      "练禀书": 8181,
      "十几丈": 8182,
      "怎么样": 8183,
      "濮阳承嗣": 8184,
      "一瞬间": 8185,
      "七级": 8186,
      "不为": 8187,
      "事宜": 8188,
      "他可是": 8189,
      "坞主": 8190,
      "外的": 8191,
      "对待": 8192,
      "我会": 8193,
      "涌入": 8194,
      "的原因": 8195,
      "监控": 8196,
      "经由": 8197,
      "负责": 8198,
      "身为": 8199,
      "轻松": 8200,
      "黑暗": 8201,
      "尝试着": 8202,
      "”，": 8203,
      "便已": 8204,
      "几名": 8205,
      "凶器": 8206,
      "凶残": 8207,
      "剑身": 8208,
      "在体内": 8209,
      "宫殿": 8210,
      "将刘君怀": 8211,
      "摆放": 8212,
      "数人": 8213,
      "浓烈": 8214,
      "狰狞": 8215,
      "甚是": 8216,
      "的炼制": 8217,
      "自主": 8218,
      "骇人": 8219,
      "灵气液": 8220,
      "一张": 8221,
      "一路": 8222,
      "保护": 8223,
      "信心": 8224,
      "四散": 8225,
      "应对": 8226,
      "往来": 8227,
      "必定": 8228,
      "惊讶": 8229,
      "意料": 8230,
      "接道": 8231,
      "施为": 8232,
      "旗主": 8233,
      "流动": 8234,
      "等等": 8235,
      "翔山": 8236,
      "见刘君怀": 8237,
      "身处": 8238,
      "还请": 8239,
      "这段时间": 8240,
      "天莲心火": 8241,
      "了下来": 8242,
      "八方": 8243,
      "古老": 8244,
      "大概": 8245,
      "必有": 8246,
      "方法": 8247,
      "明仙帝": 8248,
      "来自于": 8249,
      "海域": 8250,
      "深渊": 8251,
      "灵傀儡": 8252,
      "的就是": 8253,
      "石碑": 8254,
      "离去": 8255,
      "给了": 8256,
      "见得": 8257,
      "闪动": 8258,
      "随手": 8259,
      "飞行": 8260,
      "龙皇": 8261,
      "天地之间": 8262,
      "涂钦家族": 8263,
      "七彩": 8264,
      "十年": 8265,
      "听了": 8266,
      "围绕": 8267,
      "大至": 8268,
      "情绪": 8269,
      "深厚": 8270,
      "若不是": 8271,
      "血刀": 8272,
      "见到了": 8273,
      "豁然": 8274,
      "探识之力": 8275,
      "2章": 8276,
      "3章": 8277,
      "4章": 8278,
      "5章": 8279,
      "6章": 8280,
      "低于": 8281,
      "凛冽": 8282,
      "出面": 8283,
      "刺激": 8284,
      "各有": 8285,
      "均在": 8286,
      "处理": 8287,
      "天翔山": 8288,
      "对刘君怀": 8289,
      "幻象": 8290,
      "数名": 8291,
      "欣慰": 8292,
      "漂浮": 8293,
      "牵扯": 8294,
      "玉瓶": 8295,
      "的眼神": 8296,
      "神辉": 8297,
      "被人": 8298,
      "资质": 8299,
      "防护": 8300,
      "只是他": 8301,
      "却是在": 8302,
      "闪烁着": 8303,
      "0章": 8304,
      "1章": 8305,
      "7章": 8306,
      "8章": 8307,
      "9章": 8308,
      "万般": 8309,
      "了吧": 8310,
      "众仙人": 8311,
      "优势": 8312,
      "会令": 8313,
      "你也": 8314,
      "内的": 8315,
      "别人": 8316,
      "功能": 8317,
      "吞吐": 8318,
      "因果": 8319,
      "均被": 8320,
      "宫主": 8321,
      "带起": 8322,
      "年龄": 8323,
      "开了": 8324,
      "支持": 8325,
      "显得": 8326,
      "炸响": 8327,
      "燃烧": 8328,
      "空际": 8329,
      "肆虐": 8330,
      "酒楼": 8331,
      "一般的": 8332,
      "真龙一族": 8333,
      "传说中的": 8334,
      "久远": 8335,
      "之光": 8336,
      "但他": 8337,
      "佛家": 8338,
      "便如": 8339,
      "内里": 8340,
      "几次": 8341,
      "制造": 8342,
      "大事": 8343,
      "尖锐": 8344,
      "差异": 8345,
      "忘记": 8346,
      "有效": 8347,
      "根基": 8348,
      "汇集": 8349,
      "眼望": 8350,
      "神圣": 8351,
      "记载": 8352,
      "话音": 8353,
      "道的": 8354,
      "遗留": 8355,
      "骸骨": 8356,
      "飞升者": 8357,
      "阿九的": 8358,
      "一闪": 8359,
      "举措": 8360,
      "了过来": 8361,
      "会是": 8362,
      "入其中": 8363,
      "嘴里": 8364,
      "处一": 8365,
      "天生": 8366,
      "所需": 8367,
      "数道": 8368,
      "晏山": 8369,
      "来源": 8370,
      "湖泊": 8371,
      "百名": 8372,
      "繁杂": 8373,
      "股股": 8374,
      "自在": 8375,
      "超过": 8376,
      "达到了": 8377,
      "这件": 8378,
      "对于刘君怀": 8379,
      "鬼眼血刀": 8380,
      "两眼": 8381,
      "两个时辰": 8382,
      "几道": 8383,
      "变为": 8384,
      "喷涌": 8385,
      "排列": 8386,
      "探出": 8387,
      "本人": 8388,
      "本就是": 8389,
      "的声音": 8390,
      "茂彦": 8391,
      "补充": 8392,
      "刘君怀此时": 8393,
      "已经被": 8394,
      "那一处": 8395,
      "一干": 8396,
      "中后期": 8397,
      "亘古": 8398,
      "光团": 8399,
      "山河": 8400,
      "形势": 8401,
      "撼天": 8402,
      "无意": 8403,
      "晚间": 8404,
      "来人": 8405,
      "正自": 8406,
      "死气": 8407,
      "法相": 8408,
      "注定": 8409,
      "消散": 8410,
      "生之力": 8411,
      "目瞪": 8412,
      "移动": 8413,
      "脑海": 8414,
      "超脱": 8415,
      "通体": 8416,
      "陨落": 8417,
      "虚空中": 8418,
      "与弑血盟": 8419,
      "做些": 8420,
      "光束": 8421,
      "只需": 8422,
      "喜悦": 8423,
      "图案": 8424,
      "寥寥": 8425,
      "尹淮": 8426,
      "局面": 8427,
      "惊人": 8428,
      "我可是": 8429,
      "手臂": 8430,
      "接连": 8431,
      "至纯": 8432,
      "闪身": 8433,
      "即使是": 8434,
      "流转出": 8435,
      "接下来的": 8436,
      "一脸的": 8437,
      "严重": 8438,
      "交往": 8439,
      "任尹淮": 8440,
      "原有": 8441,
      "口呆": 8442,
      "大量": 8443,
      "小小的": 8444,
      "思虑": 8445,
      "感念": 8446,
      "指引": 8447,
      "捕捉": 8448,
      "更大": 8449,
      "术数": 8450,
      "永恒": 8451,
      "炽热": 8452,
      "相见": 8453,
      "红光": 8454,
      "重力": 8455,
      "镇压": 8456,
      "龙气": 8457,
      "里面的": 8458,
      "你看": 8459,
      "具备": 8460,
      "后人": 8461,
      "太大": 8462,
      "奇特": 8463,
      "屈卿": 8464,
      "当年": 8465,
      "径直": 8466,
      "有余": 8467,
      "猛地": 8468,
      "疑惑": 8469,
      "纯阳": 8470,
      "这番": 8471,
      "锋锐": 8472,
      "龙地": 8473,
      "清凉寺": 8474,
      "目瞪口呆": 8475,
      "三道": 8476,
      "侥幸": 8477,
      "兴贤": 8478,
      "出入": 8479,
      "后代": 8480,
      "方天地": 8481,
      "有个": 8482,
      "杀气": 8483,
      "溢满": 8484,
      "留得": 8485,
      "相通": 8486,
      "符号": 8487,
      "血意": 8488,
      "血神": 8489,
      "隐患": 8490,
      "灵魂空间": 8491,
      "大至仙": 8492,
      "下面": 8493,
      "不动": 8494,
      "不讲": 8495,
      "交汇": 8496,
      "储存": 8497,
      "利益": 8498,
      "只可惜": 8499,
      "吸力": 8500,
      "我方": 8501,
      "有一个": 8502,
      "汕凭": 8503,
      "激动": 8504,
      "灭绝": 8505,
      "知会": 8506,
      "让刘君怀": 8507,
      "道教": 8508,
      "刘君怀也是": 8509,
      "还是很": 8510,
      "出一抹": 8511,
      "见到刘君怀": 8512,
      "初期修士": 8513,
      "眼前一亮": 8514,
      "更深层": 8515,
      "两日": 8516,
      "体现": 8517,
      "值得": 8518,
      "元素": 8519,
      "可令": 8520,
      "四象": 8521,
      "多年": 8522,
      "威严": 8523,
      "少有": 8524,
      "张开": 8525,
      "所能够": 8526,
      "文字": 8527,
      "方能": 8528,
      "施用": 8529,
      "机关": 8530,
      "极有可能": 8531,
      "潜伏": 8532,
      "等到": 8533,
      "精气": 8534,
      "这也": 8535,
      "那边": 8536,
      "长时间": 8537,
      "雷门": 8538,
      "风险": 8539,
      "黄飚": 8540,
      "自身气息": 8541,
      "亿里": 8542,
      "光辉": 8543,
      "出道道": 8544,
      "在那里": 8545,
      "型势力": 8546,
      "大小的": 8547,
      "天灵": 8548,
      "威能": 8549,
      "引动": 8550,
      "总是": 8551,
      "数位": 8552,
      "数次": 8553,
      "无关": 8554,
      "替代": 8555,
      "朦胧": 8556,
      "混乱": 8557,
      "激奋": 8558,
      "秘法": 8559,
      "缘由": 8560,
      "视线": 8561,
      "赤火": 8562,
      "逼迫": 8563,
      "锐利": 8564,
      "这一刻": 8565,
      "年轻人": 8566,
      "心底里": 8567,
      "梵阳仙帝": 8568,
      "丛生": 8569,
      "九婴": 8570,
      "仿似": 8571,
      "你与": 8572,
      "你可": 8573,
      "充分": 8574,
      "十方": 8575,
      "只因": 8576,
      "地道": 8577,
      "我是": 8578,
      "来自": 8579,
      "激起": 8580,
      "相同": 8581,
      "看得": 8582,
      "窒息": 8583,
      "站起身": 8584,
      "而言": 8585,
      "腐蚀": 8586,
      "边晏山": 8587,
      "通天": 8588,
      "靠近": 8589,
      "刘君怀大": 8590,
      "没有了": 8591,
      "整个仙界": 8592,
      "莫思彤的": 8593,
      "那处位置": 8594,
      "解释道": 8595,
      "九变心法": 8596,
      "赤火九婴": 8597,
      "低阶": 8598,
      "佛义": 8599,
      "再无": 8600,
      "几年": 8601,
      "出口": 8602,
      "前行": 8603,
      "升级": 8604,
      "在外": 8605,
      "地狱": 8606,
      "安置": 8607,
      "所带来": 8608,
      "拼命": 8609,
      "无处": 8610,
      "晃动": 8611,
      "暂且": 8612,
      "有巨大": 8613,
      "相反": 8614,
      "短时间": 8615,
      "蕴养": 8616,
      "藏身": 8617,
      "讲话": 8618,
      "震骇": 8619,
      "鬼灵傀儡": 8620,
      "激荡起": 8621,
      "楷瑞仙帝": 8622,
      "不易": 8623,
      "举动": 8624,
      "云层": 8625,
      "到极致": 8626,
      "四下": 8627,
      "心意": 8628,
      "惊呼": 8629,
      "手法": 8630,
      "抑制": 8631,
      "招惹": 8632,
      "本意": 8633,
      "横亘": 8634,
      "残余": 8635,
      "直至": 8636,
      "神将": 8637,
      "自我": 8638,
      "说话": 8639,
      "超过了": 8640,
      "随意": 8641,
      "魔眼": 8642,
      "鼓动": 8643,
      "因为他": 8644,
      "引领着": 8645,
      "一段": 8646,
      "不久": 8647,
      "仓骥": 8648,
      "元力": 8649,
      "器灵": 8650,
      "在此地": 8651,
      "天色": 8652,
      "打造": 8653,
      "支撑": 8654,
      "文处一": 8655,
      "有多": 8656,
      "极是": 8657,
      "波及": 8658,
      "的主要": 8659,
      "繁衍": 8660,
      "至宝": 8661,
      "认同": 8662,
      "高层": 8663,
      "龙牙": 8664,
      "便是在": 8665,
      "一个时辰": 8666,
      "仓骥鸟": 8667,
      "之树": 8668,
      "事件": 8669,
      "些许": 8670,
      "凌霄": 8671,
      "出言": 8672,
      "前方": 8673,
      "发出一": 8674,
      "句话": 8675,
      "咆哮": 8676,
      "大作": 8677,
      "大战": 8678,
      "它是": 8679,
      "巨量": 8680,
      "得以": 8681,
      "得紧": 8682,
      "拳头": 8683,
      "掠过": 8684,
      "永远": 8685,
      "狂风": 8686,
      "秉义": 8687,
      "许久": 8688,
      "没有任何": 8689,
      "门派的": 8690,
      "汉疆的": 8691,
      "哈哈大笑": 8692,
      "筑基后期": 8693,
      "不错": 8694,
      "不足以": 8695,
      "分明": 8696,
      "后来": 8697,
      "四面": 8698,
      "多了": 8699,
      "子平": 8700,
      "沈君怀": 8701,
      "满意": 8702,
      "看重": 8703,
      "笑霖": 8704,
      "葫芦": 8705,
      "身周": 8706,
      "身心": 8707,
      "这人": 8708,
      "陆笑霖": 8709,
      "鸿蒙": 8710,
      "筑基期": 8711,
      "眨眼间": 8712,
      "封王碑": 8713,
      "乍一": 8714,
      "付出": 8715,
      "光明": 8716,
      "古怪": 8717,
      "喜欢": 8718,
      "如山": 8719,
      "广汕凭": 8720,
      "府邸": 8721,
      "把握": 8722,
      "掀起": 8723,
      "机遇": 8724,
      "水面": 8725,
      "淡然": 8726,
      "渗透": 8727,
      "特意": 8728,
      "皮肤": 8729,
      "非同": 8730,
      "智慧塔": 8731,
      "刹那间": 8732,
      "不休": 8733,
      "之能": 8734,
      "仙子": 8735,
      "前提": 8736,
      "天火": 8737,
      "天狼": 8738,
      "寒气": 8739,
      "意思": 8740,
      "成的": 8741,
      "按照": 8742,
      "武装": 8743,
      "流传": 8744,
      "炽烈": 8745,
      "牢笼": 8746,
      "看到了": 8747,
      "紧随": 8748,
      "萦绕": 8749,
      "起到": 8750,
      "身后的": 8751,
      "颌首": 8752,
      "颜色": 8753,
      "不知不觉": 8754,
      "所有的": 8755,
      "剧烈颤动": 8756,
      "参与到": 8757,
      "古战场遗址": 8758,
      "凤凰隅小世界": 8759,
      "三名": 8760,
      "不想": 8761,
      "之多": 8762,
      "乙仙": 8763,
      "九阶": 8764,
      "令我": 8765,
      "口气": 8766,
      "奇妙": 8767,
      "山峰": 8768,
      "崩溃": 8769,
      "布满": 8770,
      "战道": 8771,
      "抵挡": 8772,
      "摇了": 8773,
      "数倍": 8774,
      "新的": 8775,
      "星球": 8776,
      "果酿": 8777,
      "欣喜": 8778,
      "正确": 8779,
      "每个": 8780,
      "炼体": 8781,
      "皇族": 8782,
      "纠结": 8783,
      "绝非": 8784,
      "而上": 8785,
      "规模": 8786,
      "遁入": 8787,
      "刘君怀对": 8788,
      "隐藏在": 8789,
      "渡劫期修士": 8790,
      "门下弟子": 8791,
      "与自然": 8792,
      "再做": 8793,
      "剩余": 8794,
      "即有": 8795,
      "在座": 8796,
      "女修士": 8797,
      "审讯": 8798,
      "寻道": 8799,
      "就被": 8800,
      "左云": 8801,
      "弘邺": 8802,
      "所达": 8803,
      "放在": 8804,
      "数丈": 8805,
      "朝邕": 8806,
      "相连": 8807,
      "看出": 8808,
      "立刻": 8809,
      "管朝邕": 8810,
      "莫测": 8811,
      "衍石": 8812,
      "踪迹": 8813,
      "连连": 8814,
      "遍布": 8815,
      "飞舞": 8816,
      "马上": 8817,
      "没有丝毫": 8818,
      "已经是": 8819,
      "一个个": 8820,
      "修为境界": 8821,
      "十几名": 8822,
      "相比于": 8823,
      "天地之胎": 8824,
      "力行仙帝": 8825,
      "战道武装": 8826,
      "弘邺城": 8827,
      "上百": 8828,
      "不尽": 8829,
      "为着": 8830,
      "也可以": 8831,
      "以来": 8832,
      "入体": 8833,
      "具傀儡": 8834,
      "各人": 8835,
      "喜意": 8836,
      "干系": 8837,
      "惊醒": 8838,
      "我这": 8839,
      "换做": 8840,
      "既有": 8841,
      "时代": 8842,
      "末劫": 8843,
      "杀机": 8844,
      "沧桑": 8845,
      "生物": 8846,
      "由他": 8847,
      "祖地": 8848,
      "躬身": 8849,
      "过的": 8850,
      "这其中": 8851,
      "随后": 8852,
      "静静": 8853,
      "空间里": 8854,
      "几十里": 8855,
      "一方天地": 8856,
      "杀戮道纹": 8857,
      "一旁的": 8858,
      "三十六": 8859,
      "沉浸在": 8860,
      "一部分": 8861,
      "不去": 8862,
      "不明": 8863,
      "乍放": 8864,
      "也可": 8865,
      "些什么": 8866,
      "八卦": 8867,
      "双眸": 8868,
      "听得": 8869,
      "夹带着": 8870,
      "子喻": 8871,
      "得上": 8872,
      "我来": 8873,
      "摇曳": 8874,
      "是个": 8875,
      "是一个": 8876,
      "看了": 8877,
      "稍后": 8878,
      "繁琐": 8879,
      "绝对": 8880,
      "统一": 8881,
      "阶段": 8882,
      "面露": 8883,
      "的一丝": 8884,
      "之前的": 8885,
      "之外的": 8886,
      "一说": 8887,
      "与天道": 8888,
      "何时": 8889,
      "动作": 8890,
      "各色": 8891,
      "各方势力": 8892,
      "在其": 8893,
      "好东西": 8894,
      "我在": 8895,
      "挑选": 8896,
      "数日": 8897,
      "文秋柔": 8898,
      "新觉": 8899,
      "时期": 8900,
      "殆尽": 8901,
      "玄仙": 8902,
      "相隔": 8903,
      "血红": 8904,
      "询问": 8905,
      "走了": 8906,
      "高高": 8907,
      "魔衍石": 8908,
      "刘君怀就": 8909,
      "能够将": 8910,
      "了一种": 8911,
      "无数倍": 8912,
      "识海中": 8913,
      "无比的": 8914,
      "由此而": 8915,
      "惊天动地": 8916,
      "涂钦天和": 8917,
      "摇了摇头": 8918,
      "三炮": 8919,
      "不成": 8920,
      "了他的": 8921,
      "但凡": 8922,
      "允许": 8923,
      "分毫": 8924,
      "咔嚓": 8925,
      "嗡鸣": 8926,
      "大乙仙": 8927,
      "天才": 8928,
      "寒意": 8929,
      "带领": 8930,
      "庞大的": 8931,
      "打破": 8932,
      "损耗": 8933,
      "方是": 8934,
      "时机": 8935,
      "沉吟": 8936,
      "牵引": 8937,
      "状况": 8938,
      "现实": 8939,
      "碎片": 8940,
      "纵使": 8941,
      "迷失": 8942,
      "银色": 8943,
      "锁定": 8944,
      "刘君怀点头": 8945,
      "天地灵气": 8946,
      "修炼资源": 8947,
      "刘君怀的元神之力": 8948,
      "出一缕": 8949,
      "识海上空": 8950,
      "无限接近于": 8951,
      "专门": 8952,
      "临至": 8953,
      "从中": 8954,
      "借用": 8955,
      "几率": 8956,
      "划分": 8957,
      "半晌": 8958,
      "同甫": 8959,
      "嘶吼": 8960,
      "大院": 8961,
      "大自然": 8962,
      "夹杂": 8963,
      "岩石": 8964,
      "怪兽": 8965,
      "悚然": 8966,
      "拉拢": 8967,
      "攀升": 8968,
      "收敛": 8969,
      "晗昱": 8970,
      "最大的": 8971,
      "浑然": 8972,
      "满足": 8973,
      "特别": 8974,
      "的灵": 8975,
      "碾压": 8976,
      "称谓": 8977,
      "第2": 8978,
      "第3": 8979,
      "第4": 8980,
      "第5": 8981,
      "第6": 8982,
      "第7": 8983,
      "第8": 8984,
      "第9": 8985,
      "练家": 8986,
      "缠绕": 8987,
      "话题": 8988,
      "赶到": 8989,
      "修炼的": 8990,
      "出现的": 8991,
      "化作一道": 8992,
      "本源之力": 8993,
      "门派联盟的": 8994,
      "第10": 8995,
      "第11": 8996,
      "第12": 8997,
      "妙法之树": 8998,
      "一边": 8999,
      "不妨": 9000,
      "他那": 9001,
      "凸显": 9002,
      "功效": 9003,
      "发挥": 9004,
      "只身": 9005,
      "告诉": 9006,
      "回荡": 9007,
      "地的": 9008,
      "小小": 9009,
      "巨石": 9010,
      "带来的": 9011,
      "强度": 9012,
      "忍不住": 9013,
      "思想": 9014,
      "急切": 9015,
      "木域主": 9016,
      "的具体": 9017,
      "袭来": 9018,
      "裂痕": 9019,
      "认识": 9020,
      "身迹": 9021,
      "那样": 9022,
      "长啸": 9023,
      "隐蔽": 9024,
      "麻烦": 9025,
      "刘君怀已经": 9026,
      "意味着": 9027,
      "亲眼": 9028,
      "几百": 9029,
      "却不知": 9030,
      "另一种": 9031,
      "外界": 9032,
      "异变": 9033,
      "当初": 9034,
      "心魔": 9035,
      "所化": 9036,
      "明悟": 9037,
      "的石": 9038,
      "祥云": 9039,
      "跌落": 9040,
      "辐射": 9041,
      "都没有": 9042,
      "金晶": 9043,
      "飞身": 9044,
      "龙力": 9045,
      "势力的": 9046,
      "放心吧": 9047,
      "末法末劫": 9048,
      "撼天剑": 9049,
      "也无": 9050,
      "他自身": 9051,
      "伤害": 9052,
      "凭借": 9053,
      "另一名": 9054,
      "地一声": 9055,
      "态度": 9056,
      "操控": 9057,
      "方为": 9058,
      "木仙帝": 9059,
      "植物": 9060,
      "火属性": 9061,
      "物品": 9062,
      "的光芒": 9063,
      "的样子": 9064,
      "相予": 9065,
      "相伴": 9066,
      "碰撞": 9067,
      "穿过": 9068,
      "舒爽": 9069,
      "行进": 9070,
      "诞生": 9071,
      "黝黑": 9072,
      "气息的": 9073,
      "也不会有": 9074,
      "压迫之力": 9075,
      "仙神两界": 9076,
      "兴贤仙帝": 9077,
      "十方派": 9078,
      "龙牙道": 9079,
      "也渐渐": 9080,
      "低沉": 9081,
      "即逝": 9082,
      "同一": 9083,
      "味道": 9084,
      "嘿嘿": 9085,
      "圣威": 9086,
      "怎地": 9087,
      "想到了": 9088,
      "收回": 9089,
      "有心": 9090,
      "李相予": 9091,
      "来临": 9092,
      "梅秉义": 9093,
      "疑问": 9094,
      "虽有": 9095,
      "超乎": 9096,
      "超级": 9097,
      "迸发": 9098,
      "钟乳": 9099,
      "骷髅": 9100,
      "黑雾": 9101,
      "只是在": 9102,
      "心中的": 9103,
      "一股股": 9104,
      "消失在": 9105,
      "得到的": 9106,
      "九重天": 9107,
      "凶煞": 9108,
      "刘兄弟": 9109,
      "压抑": 9110,
      "四位": 9111,
      "据说": 9112,
      "暴涨": 9113,
      "桑甘": 9114,
      "次的": 9115,
      "洞口": 9116,
      "电流": 9117,
      "疑虑": 9118,
      "空无": 9119,
      "粉碎": 9120,
      "紧密": 9121,
      "纷乱": 9122,
      "而刘君怀": 9123,
      "耽搁": 9124,
      "肩头": 9125,
      "过左云": 9126,
      "透彻": 9127,
      "遥遥": 9128,
      "那只": 9129,
      "龙吟": 9130,
      "自然法则": 9131,
      "之下的": 9132,
      "楼主的": 9133,
      "守护者": 9134,
      "桑甘果酿": 9135,
      "便会有": 9136,
      "倒也": 9137,
      "十丈": 9138,
      "原始": 9139,
      "取出一": 9140,
      "只不过": 9141,
      "在他们": 9142,
      "地上": 9143,
      "大片": 9144,
      "太乙": 9145,
      "安郡": 9146,
      "思维": 9147,
      "所具有": 9148,
      "氲湖": 9149,
      "渺氲湖": 9150,
      "火药": 9151,
      "的感悟": 9152,
      "细碎": 9153,
      "袂女": 9154,
      "视为": 9155,
      "起伏": 9156,
      "那片": 9157,
      "的一处": 9158,
      "识海里的": 9159,
      "金色圆球": 9160,
      "其他人": 9161,
      "尤其是": 9162,
      "子喻仙尊": 9163,
      "晗昱仙帝": 9164,
      "一变": 9165,
      "一系列": 9166,
      "会不会": 9167,
      "光点": 9168,
      "外公": 9169,
      "大体": 9170,
      "实施": 9171,
      "崩裂": 9172,
      "影化": 9173,
      "忙碌": 9174,
      "戾气": 9175,
      "气劲": 9176,
      "水晶": 9177,
      "溧安郡": 9178,
      "爆发出": 9179,
      "真身": 9180,
      "紧跟着": 9181,
      "表示": 9182,
      "踏上": 9183,
      "都可以": 9184,
      "铺就": 9185,
      "刘君怀身形": 9186,
      "自然不会": 9187,
      "可是有": 9188,
      "也不敢": 9189,
      "五行混沌": 9190,
      "入口处": 9191,
      "不息": 9192,
      "主殿": 9193,
      "乍起": 9194,
      "九统领": 9195,
      "了他": 9196,
      "体会": 9197,
      "取得": 9198,
      "告辞": 9199,
      "在神界": 9200,
      "多是": 9201,
      "对你": 9202,
      "将你": 9203,
      "就这样": 9204,
      "尴尬": 9205,
      "已久": 9206,
      "带给": 9207,
      "当场": 9208,
      "快的": 9209,
      "成熟": 9210,
      "扩展": 9211,
      "无二": 9212,
      "无匹": 9213,
      "有极大": 9214,
      "杜平": 9215,
      "派遣": 9216,
      "流露": 9217,
      "灰色": 9218,
      "真是": 9219,
      "贪婪": 9220,
      "面积": 9221,
      "高兴": 9222,
      "龙五": 9223,
      "的一霎那": 9224,
      "瞬移神通": 9225,
      "西域域府": 9226,
      "肉眼可见": 9227,
      "三千": 9228,
      "之说": 9229,
      "也无法": 9230,
      "亚于": 9231,
      "今晚": 9232,
      "他知道": 9233,
      "会议": 9234,
      "但其中": 9235,
      "佛陀": 9236,
      "冰寒": 9237,
      "十九": 9238,
      "却没有": 9239,
      "名谓": 9240,
      "容不得": 9241,
      "将近": 9242,
      "忌惮": 9243,
      "排除": 9244,
      "晋阶": 9245,
      "最低": 9246,
      "电芒": 9247,
      "练气": 9248,
      "药材": 9249,
      "蓝色": 9250,
      "蠕动": 9251,
      "讲解": 9252,
      "话语": 9253,
      "这几": 9254,
      "隐现": 9255,
      "霸道": 9256,
      "飘荡": 9257,
      "天地万物": 9258,
      "还是要": 9259,
      "之后的": 9260,
      "可能性": 9261,
      "你们的": 9262,
      "规则之力": 9263,
      "中品灵石": 9264,
      "藏宝库": 9265,
      "一颗": 9266,
      "交换": 9267,
      "他身上": 9268,
      "们的": 9269,
      "偶尔": 9270,
      "凌家": 9271,
      "凶险": 9272,
      "到达": 9273,
      "半日": 9274,
      "古树": 9275,
      "富阳州": 9276,
      "得刘君怀": 9277,
      "放过": 9278,
      "晶体": 9279,
      "来历": 9280,
      "气的": 9281,
      "炙热": 9282,
      "老家伙": 9283,
      "迎来": 9284,
      "道法": 9285,
      "那可是": 9286,
      "重视": 9287,
      "阳光": 9288,
      "天地法则": 9289,
      "能够在": 9290,
      "无数的": 9291,
      "一丝丝": 9292,
      "相关势力": 9293,
      "浓郁的": 9294,
      "丝毫不": 9295,
      "金丹后期": 9296,
      "声响起": 9297,
      "霹雳雷珠": 9298,
      "一具": 9299,
      "一头": 9300,
      "不甚": 9301,
      "不说": 9302,
      "人之": 9303,
      "其余": 9304,
      "划破": 9305,
      "刻录": 9306,
      "喷吐": 9307,
      "嚣张": 9308,
      "四溅": 9309,
      "困难": 9310,
      "坚持": 9311,
      "垂衍": 9312,
      "妖孽": 9313,
      "岭池": 9314,
      "庚金": 9315,
      "影像": 9316,
      "所经": 9317,
      "所蕴含": 9318,
      "树木": 9319,
      "海洋": 9320,
      "盎然": 9321,
      "自动": 9322,
      "舞动": 9323,
      "试图": 9324,
      "颇具": 9325,
      "额头": 9326,
      "有一些": 9327,
      "境界提升": 9328,
      "修真者": 9329,
      "四面八方": 9330,
      "一夜": 9331,
      "一百": 9332,
      "不起": 9333,
      "之言": 9334,
      "五人": 9335,
      "回转": 9336,
      "地步": 9337,
      "太阳": 9338,
      "师父": 9339,
      "弥散": 9340,
      "所见": 9341,
      "损失": 9342,
      "数年": 9343,
      "施礼": 9344,
      "注入": 9345,
      "清醒": 9346,
      "药草": 9347,
      "讲的": 9348,
      "贡献": 9349,
      "除开": 9350,
      "便是将": 9351,
      "而来的": 9352,
      "无所知": 9353,
      "为一体": 9354,
      "星象塔": 9355,
      "岭池城": 9356,
      "三日": 9357,
      "为什么": 9358,
      "也只能": 9359,
      "云雾": 9360,
      "人人": 9361,
      "但因": 9362,
      "体外": 9363,
      "佛门": 9364,
      "便由": 9365,
      "再说": 9366,
      "压缩": 9367,
      "嘶嘶": 9368,
      "外人": 9369,
      "失去了": 9370,
      "己身": 9371,
      "怎能": 9372,
      "我要": 9373,
      "所想": 9374,
      "接过": 9375,
      "措施": 9376,
      "掺杂": 9377,
      "斑驳": 9378,
      "本性": 9379,
      "正义": 9380,
      "深蕴": 9381,
      "相对于": 9382,
      "终归": 9383,
      "荒芜": 9384,
      "见过": 9385,
      "那方": 9386,
      "邪风": 9387,
      "阴谋": 9388,
      "青光": 9389,
      "刘君怀很是": 9390,
      "众人的": 9391,
      "修为提升": 9392,
      "感受到了": 9393,
      "就可以了": 9394,
      "还真是": 9395,
      "遮天大手": 9396,
      "凌霄川": 9397,
      "丰富": 9398,
      "也为": 9399,
      "今后的": 9400,
      "他只": 9401,
      "他还是": 9402,
      "共有": 9403,
      "回复": 9404,
      "大师": 9405,
      "头脑": 9406,
      "嫌疑": 9407,
      "安危": 9408,
      "将要": 9409,
      "就像是": 9410,
      "开天": 9411,
      "律动": 9412,
      "成为了": 9413,
      "战力": 9414,
      "把他": 9415,
      "术法": 9416,
      "水潭": 9417,
      "清净": 9418,
      "灵动": 9419,
      "的那一": 9420,
      "的加持": 9421,
      "盘旋": 9422,
      "而易": 9423,
      "虽说": 9424,
      "这时": 9425,
      "远离": 9426,
      "遗迹": 9427,
      "那里的": 9428,
      "郁闷": 9429,
      "震颤": 9430,
      "露面": 9431,
      "混沌精石": 9432,
      "意识里": 9433,
      "新觉仙帝": 9434,
      "一份": 9435,
      "一心": 9436,
      "不远处": 9437,
      "之理": 9438,
      "别的": 9439,
      "匆匆": 9440,
      "变成": 9441,
      "可谓": 9442,
      "同等": 9443,
      "嘴中": 9444,
      "四方": 9445,
      "圣物": 9446,
      "在手": 9447,
      "地问道": 9448,
      "坚定": 9449,
      "大口": 9450,
      "存留": 9451,
      "层的": 9452,
      "异于": 9453,
      "引入": 9454,
      "当下": 9455,
      "惦记": 9456,
      "我有": 9457,
      "期间": 9458,
      "残魂": 9459,
      "洪流": 9460,
      "浓厚": 9461,
      "液体": 9462,
      "渴望": 9463,
      "炸开": 9464,
      "男子": 9465,
      "第十": 9466,
      "罡气": 9467,
      "胆敢": 9468,
      "讲过": 9469,
      "详情": 9470,
      "路上": 9471,
      "蹊跷": 9472,
      "这场": 9473,
      "通红": 9474,
      "金黄": 9475,
      "陆长": 9476,
      "齐全": 9477,
      "君怀的": 9478,
      "知道了": 9479,
      "整个人": 9480,
      "具有着": 9481,
      "神兽血脉": 9482,
      "明白了": 9483,
      "无处不在": 9484,
      "邪风旗": 9485,
      "一株": 9486,
      "一遍": 9487,
      "两眸": 9488,
      "也仅": 9489,
      "位面": 9490,
      "便即": 9491,
      "凝滞": 9492,
      "分析": 9493,
      "呆滞": 9494,
      "嘱咐": 9495,
      "在其间": 9496,
      "堪称": 9497,
      "处处": 9498,
      "如其": 9499,
      "岩壁": 9500,
      "广袤": 9501,
      "彻骨": 9502,
      "心的": 9503,
      "把持": 9504,
      "改造": 9505,
      "无视": 9506,
      "星河": 9507,
      "景曜": 9508,
      "来回": 9509,
      "松动": 9510,
      "果实": 9511,
      "洞府": 9512,
      "玄冥": 9513,
      "百万里": 9514,
      "的真元力": 9515,
      "这份": 9516,
      "龙驹": 9517,
      "有一股": 9518,
      "简单的": 9519,
      "这一次的": 9520,
      "功德无量": 9521,
      "独立空间": 9522,
      "七星": 9523,
      "两年": 9524,
      "严密": 9525,
      "严格": 9526,
      "他自己": 9527,
      "倏地": 9528,
      "凝魂": 9529,
      "分为": 9530,
      "刺目": 9531,
      "勃发": 9532,
      "四射": 9533,
      "围观": 9534,
      "圆满": 9535,
      "在自己": 9536,
      "地图": 9537,
      "天神": 9538,
      "奉戌": 9539,
      "寸寸": 9540,
      "峡谷": 9541,
      "心性": 9542,
      "思议": 9543,
      "悄悄": 9544,
      "我说": 9545,
      "描绘": 9546,
      "摆摆手": 9547,
      "数千年": 9548,
      "晋升": 9549,
      "结界": 9550,
      "翻腾": 9551,
      "蔽日": 9552,
      "融会": 9553,
      "辨识": 9554,
      "迫切": 9555,
      "透露": 9556,
      "闪现": 9557,
      "陨星": 9558,
      "马家": 9559,
      "骤起": 9560,
      "天地气息": 9561,
      "没有什么": 9562,
      "虚空空间": 9563,
      "修炼到": 9564,
      "境界的": 9565,
      "不可思议": 9566,
      "吞噬之力": 9567,
      "狂暴能量": 9568,
      "又有何": 9569,
      "一定要": 9570,
      "翰林仙帝": 9571,
      "赤焰龙驹": 9572,
      "与此同时": 9573,
      "影化神通": 9574,
      "上方": 9575,
      "与其": 9576,
      "与众人": 9577,
      "了不少": 9578,
      "交集": 9579,
      "他不": 9580,
      "他才": 9581,
      "他说道": 9582,
      "令众人": 9583,
      "以便": 9584,
      "几近": 9585,
      "凤袂女": 9586,
      "创造": 9587,
      "刺耳": 9588,
      "副盟主": 9589,
      "天人": 9590,
      "悟道": 9591,
      "惊恐": 9592,
      "惊惧": 9593,
      "掩饰": 9594,
      "明确": 9595,
      "明言": 9596,
      "星宿": 9597,
      "有关": 9598,
      "然而": 9599,
      "界竹": 9600,
      "略有": 9601,
      "痴迷": 9602,
      "碎裂": 9603,
      "磁场": 9604,
      "第一次": 9605,
      "绍远": 9606,
      "绚丽": 9607,
      "绝望": 9608,
      "色彩": 9609,
      "路线": 9610,
      "这座": 9611,
      "追求": 9612,
      "逃脱": 9613,
      "酿制": 9614,
      "随便": 9615,
      "就是为了": 9616,
      "了一些": 9617,
      "那一枚": 9618,
      "每一处": 9619,
      "就在此时": 9620,
      "天识力": 9621,
      "与否": 9622,
      "为人": 9623,
      "也均": 9624,
      "五十": 9625,
      "他是": 9626,
      "他此时": 9627,
      "但刘君怀": 9628,
      "你在": 9629,
      "公然": 9630,
      "决绝": 9631,
      "分配": 9632,
      "剥离": 9633,
      "参天": 9634,
      "名字": 9635,
      "吩咐": 9636,
      "吸入": 9637,
      "妖丹": 9638,
      "子里": 9639,
      "存活": 9640,
      "宝贝": 9641,
      "投入": 9642,
      "残暴": 9643,
      "流逝": 9644,
      "熟悉": 9645,
      "畏惧": 9646,
      "示意": 9647,
      "种植": 9648,
      "等着": 9649,
      "绝佳": 9650,
      "虚幻": 9651,
      "蛮荒": 9652,
      "过后": 9653,
      "还不": 9654,
      "这方": 9655,
      "进出": 9656,
      "道场": 9657,
      "道韵": 9658,
      "隔界竹": 9659,
      "高的": 9660,
      "鲜活": 9661,
      "空间牢笼": 9662,
      "他的身体": 9663,
      "二人的": 9664,
      "在一处": 9665,
      "神念之力": 9666,
      "阴阳术数": 9667,
      "望着刘君怀": 9668,
      "大多数": 9669,
      "太乙楼": 9670,
      "不灭": 9671,
      "为师": 9672,
      "主宰": 9673,
      "也算是": 9674,
      "俨然": 9675,
      "修道": 9676,
      "倾力": 9677,
      "偶然": 9678,
      "判断": 9679,
      "化成": 9680,
      "千名": 9681,
      "参加": 9682,
      "口诀": 9683,
      "场面": 9684,
      "天级": 9685,
      "将它": 9686,
      "将此": 9687,
      "巨浪": 9688,
      "帝王": 9689,
      "幽冥": 9690,
      "微笑": 9691,
      "我只是": 9692,
      "挥出": 9693,
      "接到": 9694,
      "泄露": 9695,
      "灭杀": 9696,
      "猛烈": 9697,
      "用处": 9698,
      "眉头": 9699,
      "睁开": 9700,
      "破空": 9701,
      "给刘君怀": 9702,
      "绚烂": 9703,
      "而后": 9704,
      "讲道": 9705,
      "说是": 9706,
      "迟滞": 9707,
      "雷光": 9708,
      "顺着": 9709,
      "飞溅": 9710,
      "刘君怀身上": 9711,
      "有一道": 9712,
      "这次的": 9713,
      "合体期": 9714,
      "一口气": 9715,
      "道德之力": 9716,
      "极寒晶石": 9717,
      "万事": 9718,
      "三种": 9719,
      "人手": 9720,
      "人间": 9721,
      "他便": 9722,
      "他对": 9723,
      "古朴": 9724,
      "合理": 9725,
      "品质": 9726,
      "噗嗤": 9727,
      "大阵": 9728,
      "失色": 9729,
      "完善": 9730,
      "就如同": 9731,
      "御雷": 9732,
      "成丹": 9733,
      "所产生": 9734,
      "挟带着": 9735,
      "是我": 9736,
      "是由": 9737,
      "最直接": 9738,
      "杀人": 9739,
      "残酷": 9740,
      "每个人": 9741,
      "深知": 9742,
      "渐有": 9743,
      "瀑布": 9744,
      "玄机": 9745,
      "环绕": 9746,
      "通知": 9747,
      "铲除": 9748,
      "闪耀": 9749,
      "阻拦": 9750,
      "青龙": 9751,
      "频繁": 9752,
      "飞剑": 9753,
      "刘君怀自身": 9754,
      "这样一来": 9755,
      "过去了": 9756,
      "不由自主": 9757,
      "天灵印记": 9758,
      "陨星府": 9759,
      "中有": 9760,
      "会引起": 9761,
      "传闻": 9762,
      "似有": 9763,
      "入圣": 9764,
      "击打": 9765,
      "制定": 9766,
      "劫数": 9767,
      "单一": 9768,
      "后裔": 9769,
      "奥妙": 9770,
      "如电": 9771,
      "姑娘": 9772,
      "尚未": 9773,
      "帕莫": 9774,
      "徒弟": 9775,
      "微弱": 9776,
      "心灵": 9777,
      "感情": 9778,
      "所处": 9779,
      "打扰": 9780,
      "搜寻": 9781,
      "晶莹": 9782,
      "梁丘": 9783,
      "正气": 9784,
      "沉重": 9785,
      "留下来": 9786,
      "的阵法": 9787,
      "的机会": 9788,
      "称是": 9789,
      "突如其": 9790,
      "苍茫": 9791,
      "莲花": 9792,
      "见了": 9793,
      "觉察": 9794,
      "觊觎": 9795,
      "这部": 9796,
      "连通": 9797,
      "都不": 9798,
      "须弥": 9799,
      "高声": 9800,
      "天地至理": 9801,
      "会有所": 9802,
      "无尽海": 9803,
      "老管家笑道": 9804,
      "神通法": 9805,
      "点头道": 9806,
      "神兽精血": 9807,
      "半炷香时间": 9808,
      "陆长守": 9809,
      "三年": 9810,
      "下一步": 9811,
      "不下": 9812,
      "两次": 9813,
      "之境": 9814,
      "传人": 9815,
      "佛气": 9816,
      "名额": 9817,
      "大大": 9818,
      "子桑": 9819,
      "子瑜": 9820,
      "平衡": 9821,
      "怪异": 9822,
      "慌乱": 9823,
      "执行": 9824,
      "承业": 9825,
      "提及": 9826,
      "桓叔": 9827,
      "比之": 9828,
      "涌现": 9829,
      "潮水": 9830,
      "熊熊": 9831,
      "用心": 9832,
      "落下": 9833,
      "落在": 9834,
      "记录": 9835,
      "身子": 9836,
      "运用": 9837,
      "青云": 9838,
      "非是": 9839,
      "韵纹": 9840,
      "境界者": 9841,
      "实力的": 9842,
      "意念力": 9843,
      "爆裂开来": 9844,
      "建立起": 9845,
      "五行混沌刀": 9846,
      "一整": 9847,
      "万分": 9848,
      "三相": 9849,
      "不受": 9850,
      "二者": 9851,
      "他对于": 9852,
      "令其": 9853,
      "侵入": 9854,
      "便在": 9855,
      "几步": 9856,
      "坚实": 9857,
      "妖气": 9858,
      "妥当": 9859,
      "已将": 9860,
      "延绵": 9861,
      "急急": 9862,
      "我二人": 9863,
      "摧毁": 9864,
      "武叔": 9865,
      "满堂": 9866,
      "狠厉": 9867,
      "真言": 9868,
      "索阳": 9869,
      "通透": 9870,
      "锋利": 9871,
      "陵冢": 9872,
      "震惊": 9873,
      "面临": 9874,
      "颇有": 9875,
      "颇深": 9876,
      "高温": 9877,
      "龙骨": 9878,
      "刘君怀还是": 9879,
      "刘君怀手中": 9880,
      "这一番": 9881,
      "仙人们": 9882,
      "整个空间": 9883,
      "炼制出": 9884,
      "老管家的": 9885,
      "半圣之体": 9886,
      "影响到": 9887,
      "一直在": 9888,
      "接触到": 9889,
      "三级": 9890,
      "不太": 9891,
      "两相": 9892,
      "之相": 9893,
      "之行": 9894,
      "云谷": 9895,
      "人士": 9896,
      "他口中": 9897,
      "你来": 9898,
      "你要": 9899,
      "其势": 9900,
      "出云谷": 9901,
      "反复": 9902,
      "名为": 9903,
      "吴绍远": 9904,
      "在半空": 9905,
      "多大": 9906,
      "平稳": 9907,
      "庆幸": 9908,
      "应当": 9909,
      "惊声": 9910,
      "才好": 9911,
      "柳家": 9912,
      "欲望": 9913,
      "比拟": 9914,
      "演练": 9915,
      "玉符": 9916,
      "生性": 9917,
      "的火焰": 9918,
      "的威压": 9919,
      "的丹药": 9920,
      "私下": 9921,
      "符合": 9922,
      "缺失": 9923,
      "膨胀": 9924,
      "诱惑": 9925,
      "这小子": 9926,
      "陆三炮": 9927,
      "需求": 9928,
      "霸气": 9929,
      "飘渺": 9930,
      "高人": 9931,
      "却是不知": 9932,
      "那一抹": 9933,
      "出一副": 9934,
      "有了些": 9935,
      "每一位": 9936,
      "镜像世界里": 9937,
      "绽放出": 9938,
      "卫道者势力": 9939,
      "玄冥会": 9940,
      "三百": 9941,
      "不对": 9942,
      "也没": 9943,
      "争取": 9944,
      "以前": 9945,
      "你有": 9946,
      "侵蚀": 9947,
      "到时": 9948,
      "功用": 9949,
      "包含": 9950,
      "千多": 9951,
      "厅堂": 9952,
      "姐姐": 9953,
      "崩塌": 9954,
      "庹楚": 9955,
      "归元": 9956,
      "情愿": 9957,
      "愿意": 9958,
      "才能够": 9959,
      "掌柜": 9960,
      "施放": 9961,
      "无极": 9962,
      "无知": 9963,
      "星星": 9964,
      "昨日": 9965,
      "更甚": 9966,
      "玄黄": 9967,
      "界面": 9968,
      "留待": 9969,
      "百息": 9970,
      "相行": 9971,
      "神火": 9972,
      "脚步": 9973,
      "血气": 9974,
      "近前": 9975,
      "这枚": 9976,
      "阻挡": 9977,
      "空间道纹": 9978,
      "圣人烙印": 9979,
      "功德无量功法": 9980,
      "帕莫极": 9981,
      "梁丘庹楚": 9982,
      "不着": 9983,
      "乍现": 9984,
      "享受": 9985,
      "他手中": 9986,
      "体术": 9987,
      "你小子": 9988,
      "倒转": 9989,
      "再者": 9990,
      "出自于": 9991,
      "反倒是": 9992,
      "只剩": 9993,
      "同为": 9994,
      "后者": 9995,
      "向往": 9996,
      "吱吱": 9997,
      "嗤嗤": 9998,
      "在意": 9999,
      "多么": 10000,
      "太上": 10001,
      "射而出": 10002,
      "得过": 10003,
      "悟得": 10004,
      "执念": 10005,
      "摊主": 10006,
      "望向刘君怀": 10007,
      "朝邳": 10008,
      "本体": 10009,
      "琉璃": 10010,
      "砰然": 10011,
      "硬生生": 10012,
      "蜂拥": 10013,
      "行走": 10014,
      "铸就": 10015,
      "铺满": 10016,
      "隐有": 10017,
      "气息里": 10018,
      "天地大劫": 10019,
      "一个人": 10020,
      "一个小": 10021,
      "瞬间被": 10022,
      "即使有": 10023,
      "明显的": 10024,
      "楚家人": 10025,
      "在虚空中": 10026,
      "万万不可": 10027,
      "源源不断": 10028,
      "天赋神通": 10029,
      "景曜仙帝": 10030,
      "神通法衍": 10031,
      "朝邳秘境": 10032,
      "一面": 10033,
      "与自己": 10034,
      "九九": 10035,
      "云灿": 10036,
      "今次": 10037,
      "他周身": 10038,
      "共鸣": 10039,
      "再一次": 10040,
      "几千年": 10041,
      "前面": 10042,
      "厚实": 10043,
      "可否": 10044,
      "哪一": 10045,
      "惊雷": 10046,
      "惶恐": 10047,
      "感叹": 10048,
      "所到": 10049,
      "所笼罩": 10050,
      "担责": 10051,
      "换取": 10052,
      "收起了": 10053,
      "无力": 10054,
      "旺盛": 10055,
      "有机会": 10056,
      "极大的": 10057,
      "的威势": 10058,
      "第五": 10059,
      "纯正": 10060,
      "给人": 10061,
      "聚拢": 10062,
      "肌肉": 10063,
      "见面": 10064,
      "还会": 10065,
      "还可以": 10066,
      "造就": 10067,
      "针对于": 10068,
      "阴沉": 10069,
      "香气": 10070,
      "高出": 10071,
      "没有问题": 10072,
      "体内能量": 10073,
      "阵法师": 10074,
      "随着刘君怀": 10075,
      "它们的": 10076,
      "修士联盟的": 10077,
      "心念转动": 10078,
      "各个势力": 10079,
      "的望着刘君怀": 10080,
      "凝魂果": 10081,
      "三相御雷": 10082,
      "索阳奉戌": 10083,
      "之态": 10084,
      "之手": 10085,
      "冲突": 10086,
      "出乎": 10087,
      "刀气": 10088,
      "去的": 10089,
      "另一位": 10090,
      "叫道": 10091,
      "后面": 10092,
      "均知": 10093,
      "域的": 10094,
      "增长": 10095,
      "大义": 10096,
      "大厅": 10097,
      "子骞": 10098,
      "尽头": 10099,
      "性的": 10100,
      "怪物": 10101,
      "所做": 10102,
      "所炼制": 10103,
      "无一丝": 10104,
      "映照": 10105,
      "是有": 10106,
      "有丝毫": 10107,
      "生活": 10108,
      "结识": 10109,
      "落下来": 10110,
      "表露": 10111,
      "踪影": 10112,
      "龙威": 10113,
      "刘君怀不": 10114,
      "天地异象": 10115,
      "也不再": 10116,
      "还是有": 10117,
      "禁制之力": 10118,
      "不见得": 10119,
      "空气中": 10120,
      "等待着": 10121,
      "沟通天地": 10122,
      "主持": 10123,
      "以他": 10124,
      "公孙": 10125,
      "六级": 10126,
      "劫难": 10127,
      "升阳": 10128,
      "午时": 10129,
      "发出了": 10130,
      "在手中": 10131,
      "均会": 10132,
      "坚固": 10133,
      "就不": 10134,
      "尽量": 10135,
      "已为": 10136,
      "惊扰": 10137,
      "把那": 10138,
      "数里": 10139,
      "无从": 10140,
      "月时间": 10141,
      "有限": 10142,
      "术的": 10143,
      "果树": 10144,
      "波澜": 10145,
      "深信": 10146,
      "牵绊": 10147,
      "皆有": 10148,
      "直冲": 10149,
      "相差": 10150,
      "短剑": 10151,
      "硕大": 10152,
      "神泥": 10153,
      "精妙": 10154,
      "纠缠": 10155,
      "给予": 10156,
      "茫茫": 10157,
      "蓝盔": 10158,
      "说的": 10159,
      "连带着": 10160,
      "虚空深处": 10161,
      "有一定": 10162,
      "无数年": 10163,
      "天道盟": 10164,
      "天道意志": 10165,
      "一切的": 10166,
      "昆吾掸的": 10167,
      "不同于": 10168,
      "果然是": 10169,
      "关键时刻": 10170,
      "摇头道": 10171,
      "相互间": 10172,
      "血雾榭": 10173,
      "骷髅傀儡": 10174,
      "子瑜仙尊": 10175,
      "与天": 10176,
      "也多": 10177,
      "也会有": 10178,
      "但在": 10179,
      "作所为": 10180,
      "你能": 10181,
      "倪高": 10182,
      "只有一": 10183,
      "后果": 10184,
      "在一片": 10185,
      "塑就": 10186,
      "妖帝": 10187,
      "将自己": 10188,
      "岁的": 10189,
      "巧妙": 10190,
      "忽略": 10191,
      "所发生": 10192,
      "抗衡": 10193,
      "无际": 10194,
      "有这般": 10195,
      "极点": 10196,
      "构成": 10197,
      "沉闷": 10198,
      "浑实": 10199,
      "淡薄": 10200,
      "深远": 10201,
      "渲染": 10202,
      "灭世": 10203,
      "焦云灿": 10204,
      "猜疑": 10205,
      "相异": 10206,
      "神物": 10207,
      "称为": 10208,
      "第四": 10209,
      "粗细": 10210,
      "线索": 10211,
      "组成": 10212,
      "缥缈": 10213,
      "而行": 10214,
      "职责": 10215,
      "脑袋": 10216,
      "赤色": 10217,
      "返身": 10218,
      "隐门": 10219,
      "黑云": 10220,
      "黑金": 10221,
      "范围之内": 10222,
      "中期修士": 10223,
      "疯狂的": 10224,
      "两个小家伙": 10225,
      "不多时": 10226,
      "钟乳石": 10227,
      "蓝盔十九": 10228,
      "倪高邈": 10229,
      "一惊": 10230,
      "一趟": 10231,
      "不一": 10232,
      "之情": 10233,
      "他已经": 10234,
      "以下": 10235,
      "但其": 10236,
      "低头": 10237,
      "你且": 10238,
      "你那": 10239,
      "几天": 10240,
      "千鹤": 10241,
      "合适": 10242,
      "周天": 10243,
      "嗡嗡": 10244,
      "回头": 10245,
      "回归": 10246,
      "圣义": 10247,
      "圣殿": 10248,
      "大惊": 10249,
      "它的存在": 10250,
      "尽可能": 10251,
      "巧合": 10252,
      "得是": 10253,
      "忌讳": 10254,
      "忽觉": 10255,
      "恢弘": 10256,
      "我也是": 10257,
      "更何况": 10258,
      "此乃": 10259,
      "渊源": 10260,
      "演变": 10261,
      "生的": 10262,
      "盯着": 10263,
      "稍作": 10264,
      "稳固": 10265,
      "缺少": 10266,
      "翼翼": 10267,
      "而知": 10268,
      "联想到": 10269,
      "血池": 10270,
      "行踪": 10271,
      "赶往": 10272,
      "身在": 10273,
      "转瞬间": 10274,
      "长久": 10275,
      "顺应": 10276,
      "几十名": 10277,
      "真龙血脉": 10278,
      "真龙陵冢": 10279,
      "小心翼翼": 10280,
      "所经之处": 10281,
      "升阳圣殿": 10282,
      "也能": 10283,
      "了然": 10284,
      "亲情": 10285,
      "他老人家": 10286,
      "以往": 10287,
      "以此": 10288,
      "体悟": 10289,
      "光泽": 10290,
      "再多": 10291,
      "冷汗": 10292,
      "减少": 10293,
      "千羽": 10294,
      "叠加": 10295,
      "圆形": 10296,
      "大喜": 10297,
      "大笑道": 10298,
      "女人": 10299,
      "尚有": 10300,
      "干净": 10301,
      "应声": 10302,
      "底蕴": 10303,
      "得了": 10304,
      "打出": 10305,
      "早些": 10306,
      "最佳": 10307,
      "有过": 10308,
      "极少": 10309,
      "残存": 10310,
      "河流": 10311,
      "深研": 10312,
      "满脸": 10313,
      "火红": 10314,
      "灵脉": 10315,
      "玄奇": 10316,
      "生变": 10317,
      "纵是": 10318,
      "联络": 10319,
      "舒展": 10320,
      "观望": 10321,
      "证据": 10322,
      "试探": 10323,
      "赶来": 10324,
      "远逸": 10325,
      "阴冷": 10326,
      "却是要": 10327,
      "修炼环境": 10328,
      "有一抹": 10329,
      "了一片": 10330,
      "这一方": 10331,
      "身上下": 10332,
      "禁制存在": 10333,
      "进阶到": 10334,
      "发现了": 10335,
      "一样的": 10336,
      "诸位前辈": 10337,
      "第13": 10338,
      "越来越多": 10339,
      "黑金玉石": 10340,
      "千羽城": 10341,
      "不亚于": 10342,
      "与他们": 10343,
      "与天地自然": 10344,
      "两处": 10345,
      "两方": 10346,
      "丹的": 10347,
      "二字": 10348,
      "于你": 10349,
      "云霄": 10350,
      "亿万": 10351,
      "传祺": 10352,
      "你等": 10353,
      "使然": 10354,
      "停止": 10355,
      "儿子": 10356,
      "决断": 10357,
      "几人的": 10358,
      "在内": 10359,
      "奖励": 10360,
      "惊世": 10361,
      "战意": 10362,
      "所知": 10363,
      "抖动": 10364,
      "抵抗": 10365,
      "招引": 10366,
      "敏传祺": 10367,
      "数百丈": 10368,
      "族类": 10369,
      "用来": 10370,
      "电网": 10371,
      "略一": 10372,
      "百余": 10373,
      "神威": 10374,
      "禁地": 10375,
      "紫金": 10376,
      "而降": 10377,
      "肃杀": 10378,
      "自从": 10379,
      "讲来": 10380,
      "连环": 10381,
      "退出": 10382,
      "附近": 10383,
      "雪凝": 10384,
      "黑衣": 10385,
      "便是因为": 10386,
      "了一遍": 10387,
      "的一缕": 10388,
      "吞噬着": 10389,
      "阗殛老祖的": 10390,
      "本源星核": 10391,
      "遮掩气息": 10392,
      "满堂红": 10393,
      "一体": 10394,
      "三生": 10395,
      "三方势力": 10396,
      "不但": 10397,
      "不舍": 10398,
      "为他": 10399,
      "之类的": 10400,
      "信仰": 10401,
      "凝固": 10402,
      "叫声": 10403,
      "喷薄": 10404,
      "嘴唇": 10405,
      "大批": 10406,
      "完毕": 10407,
      "封闭": 10408,
      "将整个": 10409,
      "尚存": 10410,
      "山庄": 10411,
      "形容": 10412,
      "得及": 10413,
      "我之": 10414,
      "扩大": 10415,
      "招收": 10416,
      "持有": 10417,
      "挣扎": 10418,
      "摆脱": 10419,
      "数番": 10420,
      "断空": 10421,
      "潜在": 10422,
      "灵草": 10423,
      "焦急": 10424,
      "理所": 10425,
      "用于": 10426,
      "留滞": 10427,
      "的妖兽": 10428,
      "相告": 10429,
      "眼眸": 10430,
      "绘制": 10431,
      "轰隆": 10432,
      "这只": 10433,
      "进展": 10434,
      "远比": 10435,
      "郑重": 10436,
      "阵符": 10437,
      "霓石": 10438,
      "鼓荡": 10439,
      "只是那": 10440,
      "修炼体质": 10441,
      "万象之道": 10442,
      "这个时候": 10443,
      "气血术": 10444,
      "气血能量": 10445,
      "一方面": 10446,
      "一方空间": 10447,
      "二十九重天": 10448,
      "令得他": 10449,
      "浦和神皇": 10450,
      "幻化出": 10451,
      "龙地凝魂果": 10452,
      "雪凝霓石": 10453,
      "一角": 10454,
      "一无二": 10455,
      "与人": 10456,
      "之眼": 10457,
      "互相": 10458,
      "介子": 10459,
      "何处": 10460,
      "到时候": 10461,
      "北斗": 10462,
      "历经": 10463,
      "回了": 10464,
      "回应": 10465,
      "大放": 10466,
      "大长老": 10467,
      "安然": 10468,
      "就好": 10469,
      "延续": 10470,
      "怎奈": 10471,
      "恪耒": 10472,
      "我这里": 10473,
      "我怎么": 10474,
      "新生": 10475,
      "施加": 10476,
      "无影": 10477,
      "日常": 10478,
      "更高": 10479,
      "最真实": 10480,
      "欢喜": 10481,
      "火海": 10482,
      "片片": 10483,
      "独一无二": 10484,
      "的威力": 10485,
      "禀报": 10486,
      "稀少": 10487,
      "程恪耒": 10488,
      "而不是": 10489,
      "脉络": 10490,
      "范畴": 10491,
      "血宠": 10492,
      "解脱": 10493,
      "讲出来": 10494,
      "过之处": 10495,
      "避免": 10496,
      "那枚": 10497,
      "陨石": 10498,
      "青烟": 10499,
      "刘君怀心内": 10500,
      "天地规则": 10501,
      "虚空里的": 10502,
      "自身实力": 10503,
      "炼制丹药": 10504,
      "显然是": 10505,
      "灵气的": 10506,
      "形成的": 10507,
      "任何人": 10508,
      "引起了": 10509,
      "历练空间": 10510,
      "骤然间": 10511,
      "笑着说道": 10512,
      "哈哈哈": 10513,
      "无穷无尽": 10514,
      "茂彦仙帝": 10515,
      "h怡": 10516,
      "之数": 10517,
      "也仅有": 10518,
      "从天": 10519,
      "从容": 10520,
      "会对": 10521,
      "位夫人": 10522,
      "元魂": 10523,
      "光耀": 10524,
      "公子": 10525,
      "再生": 10526,
      "加身": 10527,
      "十几人": 10528,
      "取出来": 10529,
      "古籍": 10530,
      "可就": 10531,
      "名单": 10532,
      "向他": 10533,
      "圣洁": 10534,
      "均已": 10535,
      "如水": 10536,
      "密林": 10537,
      "将来": 10538,
      "尚属": 10539,
      "屠杀": 10540,
      "平息": 10541,
      "很有": 10542,
      "徒儿": 10543,
      "念及": 10544,
      "怀里": 10545,
      "思路": 10546,
      "感触": 10547,
      "我去": 10548,
      "挤压": 10549,
      "易烟": 10550,
      "最好": 10551,
      "期盼": 10552,
      "杀伐": 10553,
      "样的": 10554,
      "毁天": 10555,
      "每一道": 10556,
      "灵阵": 10557,
      "相似": 10558,
      "破除": 10559,
      "端详": 10560,
      "笑颜": 10561,
      "经验": 10562,
      "而为": 10563,
      "脸上的": 10564,
      "若无": 10565,
      "若有": 10566,
      "裂开": 10567,
      "路程": 10568,
      "身法": 10569,
      "转变": 10570,
      "钧神泥": 10571,
      "门人": 10572,
      "难度": 10573,
      "君怀你": 10574,
      "刘君怀对于": 10575,
      "刘君怀心里": 10576,
      "的一位": 10577,
      "还是需要": 10578,
      "过来的": 10579,
      "完全的": 10580,
      "那些人": 10581,
      "升腾而起": 10582,
      "参与其中": 10583,
      "狂暴的": 10584,
      "无声无": 10585,
      "一晃": 10586,
      "一级": 10587,
      "不朽": 10588,
      "不论": 10589,
      "东域": 10590,
      "两枚": 10591,
      "之格": 10592,
      "乌黑": 10593,
      "云介子": 10594,
      "亮光": 10595,
      "倾泻": 10596,
      "六阶": 10597,
      "到这里": 10598,
      "勃勃": 10599,
      "反击": 10600,
      "叔雍": 10601,
      "台阶": 10602,
      "名号": 10603,
      "喘息": 10604,
      "嘉木仙帝": 10605,
      "外来": 10606,
      "外面的": 10607,
      "太叔雍": 10608,
      "奈何": 10609,
      "妖魔": 10610,
      "实为": 10611,
      "对了": 10612,
      "少年": 10613,
      "干预": 10614,
      "开去": 10615,
      "心术": 10616,
      "恩师": 10617,
      "执掌": 10618,
      "指着": 10619,
      "提早": 10620,
      "无一": 10621,
      "昏暗": 10622,
      "星文": 10623,
      "极强": 10624,
      "柔和": 10625,
      "正好": 10626,
      "永久": 10627,
      "海底": 10628,
      "满溢着": 10629,
      "破山": 10630,
      "神态": 10631,
      "祭龙": 10632,
      "精心": 10633,
      "紫红": 10634,
      "蕴藏": 10635,
      "虞城": 10636,
      "议事": 10637,
      "起始": 10638,
      "陷入了": 10639,
      "霞光": 10640,
      "颤栗": 10641,
      "高于": 10642,
      "存在了": 10643,
      "如此一来": 10644,
      "我们这些": 10645,
      "可是要": 10646,
      "进入汉疆": 10647,
      "无数次": 10648,
      "阵法的": 10649,
      "炼制的": 10650,
      "同样的": 10651,
      "关注着": 10652,
      "因此而": 10653,
      "炼器师": 10654,
      "确定下来": 10655,
      "大乘期修士": 10656,
      "十三重天": 10657,
      "祭龙潭": 10658,
      "七阶": 10659,
      "万端": 10660,
      "上前来": 10661,
      "不等": 10662,
      "之所": 10663,
      "之遥": 10664,
      "你这般": 10665,
      "偷袭": 10666,
      "八阶散修": 10667,
      "凝炼": 10668,
      "几种": 10669,
      "化身": 10670,
      "半年": 10671,
      "占据": 10672,
      "只需要": 10673,
      "吸纳": 10674,
      "圣气": 10675,
      "好感": 10676,
      "完好": 10677,
      "常人": 10678,
      "弓弩": 10679,
      "当前": 10680,
      "怎般": 10681,
      "想起了": 10682,
      "愤怒": 10683,
      "才渐渐": 10684,
      "扑面": 10685,
      "找到了": 10686,
      "招呼": 10687,
      "指点": 10688,
      "探究": 10689,
      "数个时辰": 10690,
      "无为": 10691,
      "无妄": 10692,
      "无色": 10693,
      "是他": 10694,
      "狂喜": 10695,
      "狂莽": 10696,
      "玉盒": 10697,
      "生发": 10698,
      "用场": 10699,
      "留给": 10700,
      "白玉": 10701,
      "的速度": 10702,
      "积极": 10703,
      "被那": 10704,
      "证实": 10705,
      "越加": 10706,
      "进而": 10707,
      "通灵": 10708,
      "雷鸣": 10709,
      "飞临": 10710,
      "高耸": 10711,
      "刘君怀把": 10712,
      "便是那位": 10713,
      "此时刘君怀": 10714,
      "对于他": 10715,
      "那一份": 10716,
      "之前所": 10717,
      "神念探识": 10718,
      "神龙血脉": 10719,
      "强烈的": 10720,
      "注意力": 10721,
      "夹杂着": 10722,
      "可谓是": 10723,
      "上界": 10724,
      "主意": 10725,
      "光焰": 10726,
      "几处": 10727,
      "剔透": 10728,
      "千人": 10729,
      "却又": 10730,
      "卷轴": 10731,
      "双目": 10732,
      "变异": 10733,
      "口中的": 10734,
      "古城": 10735,
      "各方": 10736,
      "含义": 10737,
      "四时": 10738,
      "坚硬": 10739,
      "堡垒": 10740,
      "天钧神泥": 10741,
      "容纳": 10742,
      "小可": 10743,
      "布下": 10744,
      "平台": 10745,
      "归于": 10746,
      "恍似": 10747,
      "您老人家": 10748,
      "悬挂": 10749,
      "悸动": 10750,
      "惊叹": 10751,
      "我还是": 10752,
      "掌风": 10753,
      "星点": 10754,
      "极深处": 10755,
      "洪荒": 10756,
      "灵泉": 10757,
      "盖世": 10758,
      "相传": 10759,
      "相应": 10760,
      "看上去": 10761,
      "眼中的": 10762,
      "管理": 10763,
      "覆灭": 10764,
      "赞同": 10765,
      "转移": 10766,
      "轻微": 10767,
      "还能": 10768,
      "还不能": 10769,
      "迷蒙": 10770,
      "道人": 10771,
      "遭受": 10772,
      "遭遇": 10773,
      "酒宴": 10774,
      "飞快": 10775,
      "高大": 10776,
      "魔幻": 10777,
      "刘君怀取出": 10778,
      "天地意志": 10779,
      "空间乱流": 10780,
      "一个巨大": 10781,
      "天道所": 10782,
      "状态下": 10783,
      "诡异的": 10784,
      "的修士们": 10785,
      "仙阵师": 10786,
      "合体后期": 10787,
      "一行人": 10788,
      "切割术": 10789,
      "一干人等": 10790,
      "非同小可": 10791,
      "天人合一": 10792,
      "远逸秘术": 10793,
      "一蓬": 10794,
      "不迭": 10795,
      "之劫": 10796,
      "之类": 10797,
      "克制": 10798,
      "再也没有": 10799,
      "几息时间": 10800,
      "前者": 10801,
      "只见": 10802,
      "商会": 10803,
      "四级": 10804,
      "声声": 10805,
      "大盛": 10806,
      "巨剑": 10807,
      "已成": 10808,
      "强盛": 10809,
      "很大的": 10810,
      "快些": 10811,
      "战傀": 10812,
      "把它": 10813,
      "掌拍": 10814,
      "是什么": 10815,
      "望了": 10816,
      "水底": 10817,
      "浩然": 10818,
      "灌注": 10819,
      "灿灿": 10820,
      "玄骨": 10821,
      "的恐怖": 10822,
      "的金色": 10823,
      "相交": 10824,
      "相询": 10825,
      "种子": 10826,
      "细密": 10827,
      "维持": 10828,
      "罗王": 10829,
      "裂隙": 10830,
      "触及": 10831,
      "贪欲": 10832,
      "轻声": 10833,
      "近似": 10834,
      "这类": 10835,
      "适应": 10836,
      "道心": 10837,
      "道身影": 10838,
      "飞掠": 10839,
      "刘君怀面色": 10840,
      "一个大": 10841,
      "那一片": 10842,
      "剧烈的": 10843,
      "星辰之力": 10844,
      "任由着": 10845,
      "在地上": 10846,
      "算得是": 10847,
      "千鹤阁": 10848,
      "玄骨弓": 10849,
      "一无所知": 10850,
      "不甘": 10851,
      "之别": 10852,
      "了好": 10853,
      "佘无敌": 10854,
      "供给": 10855,
      "元珠": 10856,
      "关乎": 10857,
      "再也不": 10858,
      "出生": 10859,
      "加快": 10860,
      "势必": 10861,
      "升华": 10862,
      "可将": 10863,
      "多出了一": 10864,
      "大殿": 10865,
      "奉鼎": 10866,
      "女子": 10867,
      "对付": 10868,
      "就能": 10869,
      "异动": 10870,
      "忙不迭": 10871,
      "怒吼": 10872,
      "成周": 10873,
      "战争": 10874,
      "抓捕": 10875,
      "方宫主": 10876,
      "暗笑": 10877,
      "沉默": 10878,
      "潜心": 10879,
      "的身体": 10880,
      "的变化": 10881,
      "的功法": 10882,
      "的情况": 10883,
      "神阙": 10884,
      "笑容": 10885,
      "符术": 10886,
      "纯粹": 10887,
      "能否": 10888,
      "苍穹": 10889,
      "连绵": 10890,
      "通彻": 10891,
      "速速": 10892,
      "那就是": 10893,
      "重点": 10894,
      "金意": 10895,
      "颇多": 10896,
      "驾驭": 10897,
      "高手": 10898,
      "自然之力": 10899,
      "自身修为": 10900,
      "什么时候": 10901,
      "混沌石": 10902,
      "进阶渡劫期": 10903,
      "那些位": 10904,
      "地面之上": 10905,
      "参与进来": 10906,
      "深深地": 10907,
      "良久后": 10908,
      "地心之火": 10909,
      "站起身来": 10910,
      "断空岛": 10911,
      "无声无息": 10912,
      "一举": 10913,
      "之名": 10914,
      "云梭": 10915,
      "他相信": 10916,
      "他可不": 10917,
      "但对于": 10918,
      "便要": 10919,
      "保障": 10920,
      "储备": 10921,
      "冲撞": 10922,
      "凌子": 10923,
      "出自": 10924,
      "博大": 10925,
      "又能": 10926,
      "只留得": 10927,
      "命令": 10928,
      "咝咝": 10929,
      "哪一位": 10930,
      "喷出": 10931,
      "在万象宗": 10932,
      "坠落": 10933,
      "密布": 10934,
      "尊崇": 10935,
      "展示": 10936,
      "山岳": 10937,
      "崇义": 10938,
      "性格": 10939,
      "怨气": 10940,
      "惊吓": 10941,
      "我知道": 10942,
      "所过之处": 10943,
      "拒绝": 10944,
      "数不清": 10945,
      "星空": 10946,
      "极难": 10947,
      "某一处": 10948,
      "查看": 10949,
      "正色": 10950,
      "步罡": 10951,
      "洗涤": 10952,
      "清气": 10953,
      "渐浓": 10954,
      "灵果": 10955,
      "炫明": 10956,
      "照耀": 10957,
      "特性": 10958,
      "珈虞城": 10959,
      "由着": 10960,
      "的作用": 10961,
      "的到来": 10962,
      "益处": 10963,
      "石头": 10964,
      "笑骂": 10965,
      "纯净": 10966,
      "良好": 10967,
      "譬如": 10968,
      "运气": 10969,
      "还不如": 10970,
      "邀请": 10971,
      "郎星文": 10972,
      "刘君怀口中": 10973,
      "气息所": 10974,
      "只是一": 10975,
      "时间道纹": 10976,
      "体内气血": 10977,
      "仙界的": 10978,
      "天道的": 10979,
      "冲击波": 10980,
      "可怕的": 10981,
      "十分的": 10982,
      "某一日": 10983,
      "见识到": 10984,
      "魔幻之眼": 10985,
      "一毫": 10986,
      "一见": 10987,
      "下方": 10988,
      "不假": 10989,
      "不惜": 10990,
      "不解": 10991,
      "云罗": 10992,
      "仿制": 10993,
      "似得": 10994,
      "充盈": 10995,
      "内容": 10996,
      "准确": 10997,
      "分散": 10998,
      "剑仙": 10999,
      "剩下的": 11000,
      "另一处": 11001,
      "喃喃": 11002,
      "在无尽": 11003,
      "在整个": 11004,
      "在西域": 11005,
      "壁上": 11006,
      "多人": 11007,
      "太歙": 11008,
      "岂是": 11009,
      "州城": 11010,
      "幻作": 11011,
      "当即": 11012,
      "急于": 11013,
      "想起": 11014,
      "感兴趣": 11015,
      "戈武": 11016,
      "所思": 11017,
      "扫过": 11018,
      "拍了": 11019,
      "探得": 11020,
      "显而易": 11021,
      "暗暗": 11022,
      "有时候": 11023,
      "未想到": 11024,
      "此子": 11025,
      "此际": 11026,
      "洗礼": 11027,
      "清澈": 11028,
      "灼烧": 11029,
      "界碑": 11030,
      "稍有": 11031,
      "组合": 11032,
      "自其中": 11033,
      "至关": 11034,
      "草木": 11035,
      "菩萨": 11036,
      "讲了": 11037,
      "赤霄": 11038,
      "赶忙": 11039,
      "跋扈": 11040,
      "转头": 11041,
      "这道": 11042,
      "通明": 11043,
      "遍地": 11044,
      "问询": 11045,
      "雷声": 11046,
      "风声": 11047,
      "骨髓": 11048,
      "天地感知": 11049,
      "了一声": 11050,
      "几十息": 11051,
      "前辈的": 11052,
      "十几位": 11053,
      "一缕缕": 11054,
      "更加的": 11055,
      "散发出来": 11056,
      "接着说道": 11057,
      "蔓延开来": 11058,
      "炼丹室": 11059,
      "贯穿天地": 11060,
      "珍贵之物": 11061,
      "仙神两界通道": 11062,
      "围绕着": 11063,
      "三生石": 11064,
      "神阙令": 11065,
      "太歙谷": 11066,
      "一圈": 11067,
      "不经": 11068,
      "不再有": 11069,
      "不容易": 11070,
      "为你": 11071,
      "之主": 11072,
      "也罢": 11073,
      "也愈加": 11074,
      "了个": 11075,
      "事先": 11076,
      "他甚至": 11077,
      "伪装": 11078,
      "体而出": 11079,
      "做好": 11080,
      "停留": 11081,
      "元凌子": 11082,
      "再起": 11083,
      "前所": 11084,
      "动用": 11085,
      "勃然": 11086,
      "变换": 11087,
      "在原地": 11088,
      "奔腾": 11089,
      "寂静": 11090,
      "就已经": 11091,
      "居住": 11092,
      "巨人": 11093,
      "巽蛇": 11094,
      "彼岸": 11095,
      "想不到": 11096,
      "手印": 11097,
      "指向": 11098,
      "探明": 11099,
      "探视": 11100,
      "携带": 11101,
      "数月": 11102,
      "整整": 11103,
      "整片": 11104,
      "无情": 11105,
      "暴烈": 11106,
      "曲折": 11107,
      "望去": 11108,
      "术神": 11109,
      "枝叶": 11110,
      "毛孔": 11111,
      "沿着": 11112,
      "消化": 11113,
      "独有": 11114,
      "略作": 11115,
      "的开始": 11116,
      "监视": 11117,
      "看待": 11118,
      "瞳孔": 11119,
      "神韵": 11120,
      "紧随着": 11121,
      "耳边": 11122,
      "观看": 11123,
      "谶纬": 11124,
      "集体": 11125,
      "霎时": 11126,
      "风雨": 11127,
      "高达": 11128,
      "龙卷": 11129,
      "便是他": 11130,
      "存在意义": 11131,
      "仙帝初期": 11132,
      "刘君怀的到来": 11133,
      "而且这": 11134,
      "出一种": 11135,
      "天道体": 11136,
      "仿佛是": 11137,
      "神通符": 11138,
      "十几年": 11139,
      "无形的": 11140,
      "生命力": 11141,
      "凤凰一族": 11142,
      "遮天蔽日": 11143,
      "神级仙人": 11144,
      "的主要原因": 11145,
      "金晶巽蛇": 11146,
      "须弥石": 11147,
      "太上长老": 11148,
      "至关重要": 11149,
      "一如": 11150,
      "一月": 11151,
      "七色": 11152,
      "七重天": 11153,
      "上门": 11154,
      "下心": 11155,
      "不满": 11156,
      "与玄羽旗": 11157,
      "中丹田": 11158,
      "也只": 11159,
      "些时日": 11160,
      "仅仅是": 11161,
      "何人": 11162,
      "先祖": 11163,
      "内情": 11164,
      "冲出": 11165,
      "冷意": 11166,
      "凶戾": 11167,
      "到得": 11168,
      "制止": 11169,
      "匪夷": 11170,
      "华清": 11171,
      "即便": 11172,
      "受益": 11173,
      "只觉": 11174,
      "叶阳": 11175,
      "听着": 11176,
      "在这个": 11177,
      "多谢": 11178,
      "天雷": 11179,
      "失败": 11180,
      "宗门": 11181,
      "定会": 11182,
      "将他们": 11183,
      "小神通": 11184,
      "就连": 11185,
      "干涉": 11186,
      "归来": 11187,
      "形状": 11188,
      "念动": 11189,
      "急忙": 11190,
      "总部": 11191,
      "打压": 11192,
      "抬起": 11193,
      "授道": 11194,
      "掌心": 11195,
      "掐念": 11196,
      "旁边": 11197,
      "条条": 11198,
      "森王": 11199,
      "欢快": 11200,
      "欲要": 11201,
      "正面": 11202,
      "每一丝": 11203,
      "沉思": 11204,
      "沼泽": 11205,
      "涌出": 11206,
      "混杂": 11207,
      "炸裂": 11208,
      "的世界": 11209,
      "的目的": 11210,
      "眼见": 11211,
      "矿石": 11212,
      "神泉": 11213,
      "禁止": 11214,
      "第六": 11215,
      "翠绿": 11216,
      "试想": 11217,
      "象征": 11218,
      "走到": 11219,
      "转过": 11220,
      "边缘": 11221,
      "还会有": 11222,
      "这条": 11223,
      "逐步": 11224,
      "顾不及": 11225,
      "风吹": 11226,
      "高僧": 11227,
      "高山": 11228,
      "那一日": 11229,
      "万年前": 11230,
      "不同的": 11231,
      "看到刘君怀": 11232,
      "楚家的": 11233,
      "哈哈大笑道": 11234,
      "禁锢之力": 11235,
[...]
